<?xml version="1.0"?>
<!--
    (c) Copyright 2000-2018 CERN for the benefit of the LHCb Collaboration

    This software is distributed under the terms of the GNU General Public
    Licence version 3 (GPL Version 3), copied verbatim in the file "COPYING".

    In applying this licence, CERN does not waive the privileges and immunities
    granted to it by virtue of its status as an Intergovernmental Organization
    or submit itself to any jurisdiction.
-->
<MethodSetup Method="MLP::Ghost_Upstream_TMVA">
  <GeneralInfo>
    <Info name="TMVA Release" value="4.2.1 [262657]"/>
    <Info name="ROOT Release" value="6.12/06 [396294]"/>
    <Info name="Creator" value="jonesc"/>
    <Info name="Date" value="Sat Jun  9 05:15:37 2018"/>
    <Info name="Host" value="Linux lcgapp-slc6-x86-64-2.cern.ch 2.6.32-696.18.7.el6.x86_64 #1 SMP Thu Jan 4 13:27:39 CET 2018 x86_64 x86_64 x86_64 GNU/Linux"/>
    <Info name="Dir" value="/var/pcfst/r01/lhcb/jonesc/ANNPID/results/UpgradeSim09cUp02RecoUp01/TrainMixture/TrainPhysTks-EvalPhysTks-NoReweight-EqualSigBck0.25/GhostAccFrac1.0/PrAccF1.0/KaAccF1.0/PiAccF1.0/TMVA-Upgrade-Sim09cUp02RecoUp01/MLP/Norm/L1SF1.6/L2SF1.6/BP/NCycles750/CE/tanh/CVTest15/CVImp1e-16/NotUseRegulator/Ghost/Upstream"/>
    <Info name="Training events" value="2400000"/>
    <Info name="TrainingTime" value="6.15972404e+04"/>
    <Info name="AnalysisType" value="Classification"/>
  </GeneralInfo>
  <Options>
    <Option name="NCycles" modified="Yes">750</Option>
    <Option name="HiddenLayers" modified="Yes">30,30</Option>
    <Option name="NeuronType" modified="Yes">tanh</Option>
    <Option name="RandomSeed" modified="No">1</Option>
    <Option name="EstimatorType" modified="Yes">CE</Option>
    <Option name="NeuronInputType" modified="No">sum</Option>
    <Option name="V" modified="Yes">True</Option>
    <Option name="VerbosityLevel" modified="No">Verbose</Option>
    <Option name="VarTransform" modified="Yes">Norm</Option>
    <Option name="H" modified="Yes">True</Option>
    <Option name="CreateMVAPdfs" modified="No">False</Option>
    <Option name="IgnoreNegWeightsInTraining" modified="No">False</Option>
    <Option name="TrainingMethod" modified="Yes">BP</Option>
    <Option name="LearningRate" modified="No">2.000000e-02</Option>
    <Option name="DecayRate" modified="No">1.000000e-02</Option>
    <Option name="TestRate" modified="No">10</Option>
    <Option name="EpochMonitoring" modified="Yes">True</Option>
    <Option name="Sampling" modified="No">1.000000e+00</Option>
    <Option name="SamplingEpoch" modified="No">1.000000e+00</Option>
    <Option name="SamplingImportance" modified="No">1.000000e+00</Option>
    <Option name="SamplingTraining" modified="No">True</Option>
    <Option name="SamplingTesting" modified="No">False</Option>
    <Option name="ResetStep" modified="No">50</Option>
    <Option name="Tau" modified="No">3.000000e+00</Option>
    <Option name="BPMode" modified="No">sequential</Option>
    <Option name="BatchSize" modified="No">-1</Option>
    <Option name="ConvergenceImprove" modified="Yes">1.000000e-16</Option>
    <Option name="ConvergenceTests" modified="Yes">15</Option>
    <Option name="UseRegulator" modified="Yes">False</Option>
    <Option name="UpdateLimit" modified="No">10000</Option>
    <Option name="CalculateErrors" modified="No">False</Option>
    <Option name="WeightRange" modified="No">1.000000e+00</Option>
  </Options>
  <Variables NVar="19">
    <Variable VarIndex="0" Expression="TrackP" Label="TrackP" Title="TrackP" Unit="" Internal="TrackP" Type="F" Min="2.80019989e+02" Max="4.99112400e+06"/>
    <Variable VarIndex="1" Expression="TrackPt" Label="TrackPt" Title="TrackPt" Unit="" Internal="TrackPt" Type="F" Min="1.67983723e+01" Max="9.39613188e+05"/>
    <Variable VarIndex="2" Expression="TrackChi2PerDof" Label="TrackChi2PerDof" Title="TrackChi2PerDof" Unit="" Internal="TrackChi2PerDof" Type="F" Min="2.30470209e-06" Max="2.99997282e+00"/>
    <Variable VarIndex="3" Expression="TrackNumDof" Label="TrackNumDof" Title="TrackNumDof" Unit="" Internal="TrackNumDof" Type="I" Min="2.00000000e+00" Max="4.30000000e+01"/>
    <Variable VarIndex="4" Expression="TrackGhostProbability" Label="TrackGhostProbability" Title="TrackGhostProbability" Unit="" Internal="TrackGhostProbability" Type="F" Min="7.35282898e-04" Max="9.99996841e-01"/>
    <Variable VarIndex="5" Expression="TrackFitVeloChi2" Label="TrackFitVeloChi2" Title="TrackFitVeloChi2" Unit="" Internal="TrackFitVeloChi2" Type="F" Min="8.07177519e-11" Max="1.04966393e+02"/>
    <Variable VarIndex="6" Expression="TrackFitVeloNDoF" Label="TrackFitVeloNDoF" Title="TrackFitVeloNDoF" Unit="" Internal="TrackFitVeloNDoF" Type="I" Min="-1.00000000e+00" Max="3.90000000e+01"/>
    <Variable VarIndex="7" Expression="RichUsedR1Gas" Label="RichUsedR1Gas" Title="RichUsedR1Gas" Unit="" Internal="RichUsedR1Gas" Type="I" Min="0.00000000e+00" Max="1.00000000e+00"/>
    <Variable VarIndex="8" Expression="RichAbovePiThres" Label="RichAbovePiThres" Title="RichAbovePiThres" Unit="" Internal="RichAbovePiThres" Type="I" Min="0.00000000e+00" Max="1.00000000e+00"/>
    <Variable VarIndex="9" Expression="RichAboveKaThres" Label="RichAboveKaThres" Title="RichAboveKaThres" Unit="" Internal="RichAboveKaThres" Type="I" Min="0.00000000e+00" Max="1.00000000e+00"/>
    <Variable VarIndex="10" Expression="RichAbovePrThres" Label="RichAbovePrThres" Title="RichAbovePrThres" Unit="" Internal="RichAbovePrThres" Type="I" Min="0.00000000e+00" Max="1.00000000e+00"/>
    <Variable VarIndex="11" Expression="RichDLLe" Label="RichDLLe" Title="RichDLLe" Unit="" Internal="RichDLLe" Type="F" Min="-9.99000000e+02" Max="9.64469986e+01"/>
    <Variable VarIndex="12" Expression="RichDLLmu" Label="RichDLLmu" Title="RichDLLmu" Unit="" Internal="RichDLLmu" Type="F" Min="-9.99000000e+02" Max="7.30131989e+01"/>
    <Variable VarIndex="13" Expression="RichDLLk" Label="RichDLLk" Title="RichDLLk" Unit="" Internal="RichDLLk" Type="F" Min="-9.99000000e+02" Max="9.06621017e+01"/>
    <Variable VarIndex="14" Expression="RichDLLp" Label="RichDLLp" Title="RichDLLp" Unit="" Internal="RichDLLp" Type="F" Min="-9.99000000e+02" Max="7.12873001e+01"/>
    <Variable VarIndex="15" Expression="RichDLLd" Label="RichDLLd" Title="RichDLLd" Unit="" Internal="RichDLLd" Type="F" Min="-9.99000000e+02" Max="8.20015030e+01"/>
    <Variable VarIndex="16" Expression="RichDLLbt" Label="RichDLLbt" Title="RichDLLbt" Unit="" Internal="RichDLLbt" Type="F" Min="-9.99000000e+02" Max="4.56291008e+01"/>
    <Variable VarIndex="17" Expression="InAccBrem" Label="InAccBrem" Title="InAccBrem" Unit="" Internal="InAccBrem" Type="I" Min="0.00000000e+00" Max="1.00000000e+00"/>
    <Variable VarIndex="18" Expression="BremPIDe" Label="BremPIDe" Title="BremPIDe" Unit="" Internal="BremPIDe" Type="F" Min="-9.99000000e+02" Max="4.79148388e+00"/>
  </Variables>
  <Spectators NSpec="0"/>
  <Classes NClass="2">
    <Class Name="Signal" Index="0"/>
    <Class Name="Background" Index="1"/>
  </Classes>
  <Transformations NTransformations="1">
    <Transform Name="Normalize">
      <Selection>
        <Input NInputs="19">
          <Input Type="Variable" Label="TrackP" Expression="TrackP"/>
          <Input Type="Variable" Label="TrackPt" Expression="TrackPt"/>
          <Input Type="Variable" Label="TrackChi2PerDof" Expression="TrackChi2PerDof"/>
          <Input Type="Variable" Label="TrackNumDof" Expression="TrackNumDof"/>
          <Input Type="Variable" Label="TrackGhostProbability" Expression="TrackGhostProbability"/>
          <Input Type="Variable" Label="TrackFitVeloChi2" Expression="TrackFitVeloChi2"/>
          <Input Type="Variable" Label="TrackFitVeloNDoF" Expression="TrackFitVeloNDoF"/>
          <Input Type="Variable" Label="RichUsedR1Gas" Expression="RichUsedR1Gas"/>
          <Input Type="Variable" Label="RichAbovePiThres" Expression="RichAbovePiThres"/>
          <Input Type="Variable" Label="RichAboveKaThres" Expression="RichAboveKaThres"/>
          <Input Type="Variable" Label="RichAbovePrThres" Expression="RichAbovePrThres"/>
          <Input Type="Variable" Label="RichDLLe" Expression="RichDLLe"/>
          <Input Type="Variable" Label="RichDLLmu" Expression="RichDLLmu"/>
          <Input Type="Variable" Label="RichDLLk" Expression="RichDLLk"/>
          <Input Type="Variable" Label="RichDLLp" Expression="RichDLLp"/>
          <Input Type="Variable" Label="RichDLLd" Expression="RichDLLd"/>
          <Input Type="Variable" Label="RichDLLbt" Expression="RichDLLbt"/>
          <Input Type="Variable" Label="InAccBrem" Expression="InAccBrem"/>
          <Input Type="Variable" Label="BremPIDe" Expression="BremPIDe"/>
        </Input>
        <Output NOutputs="19">
          <Output Type="Variable" Label="TrackP" Expression="TrackP"/>
          <Output Type="Variable" Label="TrackPt" Expression="TrackPt"/>
          <Output Type="Variable" Label="TrackChi2PerDof" Expression="TrackChi2PerDof"/>
          <Output Type="Variable" Label="TrackNumDof" Expression="TrackNumDof"/>
          <Output Type="Variable" Label="TrackGhostProbability" Expression="TrackGhostProbability"/>
          <Output Type="Variable" Label="TrackFitVeloChi2" Expression="TrackFitVeloChi2"/>
          <Output Type="Variable" Label="TrackFitVeloNDoF" Expression="TrackFitVeloNDoF"/>
          <Output Type="Variable" Label="RichUsedR1Gas" Expression="RichUsedR1Gas"/>
          <Output Type="Variable" Label="RichAbovePiThres" Expression="RichAbovePiThres"/>
          <Output Type="Variable" Label="RichAboveKaThres" Expression="RichAboveKaThres"/>
          <Output Type="Variable" Label="RichAbovePrThres" Expression="RichAbovePrThres"/>
          <Output Type="Variable" Label="RichDLLe" Expression="RichDLLe"/>
          <Output Type="Variable" Label="RichDLLmu" Expression="RichDLLmu"/>
          <Output Type="Variable" Label="RichDLLk" Expression="RichDLLk"/>
          <Output Type="Variable" Label="RichDLLp" Expression="RichDLLp"/>
          <Output Type="Variable" Label="RichDLLd" Expression="RichDLLd"/>
          <Output Type="Variable" Label="RichDLLbt" Expression="RichDLLbt"/>
          <Output Type="Variable" Label="InAccBrem" Expression="InAccBrem"/>
          <Output Type="Variable" Label="BremPIDe" Expression="BremPIDe"/>
        </Output>
      </Selection>
      <Class ClassIndex="0">
        <Ranges>
          <Range Index="0" Min="2.8001998901367188e+02" Max="4.9714380000000000e+06"/>
          <Range Index="1" Min="1.6798372268676758e+01" Max="8.7024381250000000e+05"/>
          <Range Index="2" Min="2.3047020931699080e-06" Max="2.9999728202819824e+00"/>
          <Range Index="3" Min="2.0000000000000000e+00" Max="4.1000000000000000e+01"/>
          <Range Index="4" Min="1.6443729400634766e-03" Max="9.9999684095382690e-01"/>
          <Range Index="5" Min="8.0717751926862036e-11" Max="8.9380187988281250e+01"/>
          <Range Index="6" Min="-1.0000000000000000e+00" Max="3.7000000000000000e+01"/>
          <Range Index="7" Min="0.0000000000000000e+00" Max="1.0000000000000000e+00"/>
          <Range Index="8" Min="0.0000000000000000e+00" Max="1.0000000000000000e+00"/>
          <Range Index="9" Min="0.0000000000000000e+00" Max="1.0000000000000000e+00"/>
          <Range Index="10" Min="0.0000000000000000e+00" Max="1.0000000000000000e+00"/>
          <Range Index="11" Min="-9.9900000000000000e+02" Max="8.6356697082519531e+01"/>
          <Range Index="12" Min="-9.9900000000000000e+02" Max="4.6604400634765625e+01"/>
          <Range Index="13" Min="-9.9900000000000000e+02" Max="5.6424999237060547e+01"/>
          <Range Index="14" Min="-9.9900000000000000e+02" Max="7.0899299621582031e+01"/>
          <Range Index="15" Min="-9.9900000000000000e+02" Max="4.4891498565673828e+01"/>
          <Range Index="16" Min="-9.9900000000000000e+02" Max="4.4740501403808594e+01"/>
          <Range Index="17" Min="0.0000000000000000e+00" Max="1.0000000000000000e+00"/>
          <Range Index="18" Min="-9.9900000000000000e+02" Max="4.7914838790893555e+00"/>
        </Ranges>
      </Class>
      <Class ClassIndex="1">
        <Ranges>
          <Range Index="0" Min="2.9738000488281250e+02" Max="4.9911240000000000e+06"/>
          <Range Index="1" Min="2.7041810989379883e+01" Max="9.3961318750000000e+05"/>
          <Range Index="2" Min="3.3460815757280216e-05" Max="2.9999201297760010e+00"/>
          <Range Index="3" Min="2.0000000000000000e+00" Max="4.3000000000000000e+01"/>
          <Range Index="4" Min="7.3528289794921875e-04" Max="9.9954295158386230e-01"/>
          <Range Index="5" Min="1.2878922928116765e-10" Max="1.0496639251708984e+02"/>
          <Range Index="6" Min="-1.0000000000000000e+00" Max="3.9000000000000000e+01"/>
          <Range Index="7" Min="0.0000000000000000e+00" Max="1.0000000000000000e+00"/>
          <Range Index="8" Min="0.0000000000000000e+00" Max="1.0000000000000000e+00"/>
          <Range Index="9" Min="0.0000000000000000e+00" Max="1.0000000000000000e+00"/>
          <Range Index="10" Min="0.0000000000000000e+00" Max="1.0000000000000000e+00"/>
          <Range Index="11" Min="-9.9900000000000000e+02" Max="9.6446998596191406e+01"/>
          <Range Index="12" Min="-9.9900000000000000e+02" Max="7.3013198852539062e+01"/>
          <Range Index="13" Min="-9.9900000000000000e+02" Max="9.0662101745605469e+01"/>
          <Range Index="14" Min="-9.9900000000000000e+02" Max="7.1287300109863281e+01"/>
          <Range Index="15" Min="-9.9900000000000000e+02" Max="8.2001502990722656e+01"/>
          <Range Index="16" Min="-9.9900000000000000e+02" Max="4.5629100799560547e+01"/>
          <Range Index="17" Min="0.0000000000000000e+00" Max="1.0000000000000000e+00"/>
          <Range Index="18" Min="-9.9900000000000000e+02" Max="4.7914838790893555e+00"/>
        </Ranges>
      </Class>
      <Class ClassIndex="2">
        <Ranges>
          <Range Index="0" Min="2.8001998901367188e+02" Max="4.9911240000000000e+06"/>
          <Range Index="1" Min="1.6798372268676758e+01" Max="9.3961318750000000e+05"/>
          <Range Index="2" Min="2.3047020931699080e-06" Max="2.9999728202819824e+00"/>
          <Range Index="3" Min="2.0000000000000000e+00" Max="4.3000000000000000e+01"/>
          <Range Index="4" Min="7.3528289794921875e-04" Max="9.9999684095382690e-01"/>
          <Range Index="5" Min="8.0717751926862036e-11" Max="1.0496639251708984e+02"/>
          <Range Index="6" Min="-1.0000000000000000e+00" Max="3.9000000000000000e+01"/>
          <Range Index="7" Min="0.0000000000000000e+00" Max="1.0000000000000000e+00"/>
          <Range Index="8" Min="0.0000000000000000e+00" Max="1.0000000000000000e+00"/>
          <Range Index="9" Min="0.0000000000000000e+00" Max="1.0000000000000000e+00"/>
          <Range Index="10" Min="0.0000000000000000e+00" Max="1.0000000000000000e+00"/>
          <Range Index="11" Min="-9.9900000000000000e+02" Max="9.6446998596191406e+01"/>
          <Range Index="12" Min="-9.9900000000000000e+02" Max="7.3013198852539062e+01"/>
          <Range Index="13" Min="-9.9900000000000000e+02" Max="9.0662101745605469e+01"/>
          <Range Index="14" Min="-9.9900000000000000e+02" Max="7.1287300109863281e+01"/>
          <Range Index="15" Min="-9.9900000000000000e+02" Max="8.2001502990722656e+01"/>
          <Range Index="16" Min="-9.9900000000000000e+02" Max="4.5629100799560547e+01"/>
          <Range Index="17" Min="0.0000000000000000e+00" Max="1.0000000000000000e+00"/>
          <Range Index="18" Min="-9.9900000000000000e+02" Max="4.7914838790893555e+00"/>
        </Ranges>
      </Class>
    </Transform>
  </Transformations>
  <MVAPdfs/>
  <Weights>
    <Layout NLayers="4">
      <Layer Index="0" NNeurons="20">
        <Neuron NSynapses="30">
          -4.3478040080588576e+00 1.2646178116523966e+01 2.2660555027725571e+00 2.5996169639791735e+00 -1.2457311433726876e+01 -5.7717380036631294e+00 -4.4412644497522064e-01 2.1091337759440991e+00 7.8541717063486359e-03 -1.8666129552267738e+00 -4.9597650554677282e+00 -4.5684317317977392e+00 -3.4500893035136455e+00 -3.2845038767652440e+01 -6.3249579665446387e-01 2.5277709385444020e+00 -5.7631787864326309e+00 1.1554609193990459e+00 -9.7088530238606330e-01 -2.2323078643094618e+00 1.1020540344390481e+00 -5.2737294173231888e+00 -9.2264819604074377e-01 4.3987710716004855e+00 1.8380022826621565e+00 -5.1857383309664371e+00 3.4068868259148150e-01 1.3633550026447607e+00 -3.5625371434611717e+00 6.8345561030498814e-01 
        </Neuron>
        <Neuron NSynapses="30">
          -3.1240552364870405e-01 1.7125915993837861e+00 1.7219824241869592e-02 -1.7902264468116387e+00 5.7799885247553338e+00 -3.2120461639226363e+00 -1.3914498823867705e+00 8.4266604815940693e-01 -2.7046806020138638e+00 -3.0320581332751444e+00 2.0482641491657301e+00 -4.1324991152330224e+00 3.2971294447703712e+00 1.2885314782231411e+01 -7.6101635675112012e-01 8.4963663957742874e-01 1.5282590759322785e+00 -3.1355112331136357e+00 1.6457822856407600e+00 1.8874782171161637e+00 1.0538469811422890e+00 1.3855030273966231e+00 -2.9396039015939275e+00 3.4230864939841266e+00 -5.7918465929734297e-01 -1.7490466151447859e-01 -2.5951594336083343e+00 -1.8888919553399557e+00 1.5900959218848139e+00 1.3629439627220534e+00 
        </Neuron>
        <Neuron NSynapses="30">
          -3.0013498407940964e-01 3.5101549492099982e-01 1.2327931065787525e+00 -4.4390750710077964e-01 6.2124412802162954e-01 -3.0869699731451772e+00 3.0821048928594061e+00 -2.4284355094512042e+00 -1.4879474046994072e+00 -9.3127335842685455e-01 -4.8675513057095310e-01 -8.7039096206308852e-01 5.4645736884567486e-01 7.9825094605061958e-02 1.3469582013032244e+00 4.7534757515301707e-01 2.6000155064833735e-01 -2.1850412820641698e+00 7.6687306280370060e-01 3.3109599234921122e-01 3.2733352572864688e-01 -1.1789166054463620e+00 -7.7842044466686655e-01 9.1049014528822647e-01 -1.2819912072809352e+00 -2.3972443360698156e-01 -2.1542640320578602e-01 -1.4171128549353569e+00 2.1881588066841900e-01 8.5053742092980844e-01 
        </Neuron>
        <Neuron NSynapses="30">
          -1.0508204871897919e+00 -6.3275939666764458e-01 -6.8142376642544952e-02 1.4606282267431906e+01 -6.1710676053182150e+00 -3.1345119447759573e+00 4.8431685090756910e-01 -1.8593395765558218e+00 -8.4351606047271543e-01 -5.9067929129166394e+00 1.3590503091309312e+01 1.3499391357408912e+00 -5.2093657999314855e+00 -2.4337101005889634e+00 -1.1648699180615385e+00 9.4858919803910222e+00 -9.2222592137341231e-01 -1.9990350887200472e+00 -4.4772745902933933e+00 6.2286347991360174e+00 8.4458285021446211e-01 1.6140583366985037e+01 2.7227450312249735e+00 6.9657659005593509e-01 -2.0254541225750550e-01 1.6148775313392687e+01 3.1152461731195187e+00 -4.7494262921845420e+00 2.3680986997612852e+00 -9.4497295951111560e-01 
        </Neuron>
        <Neuron NSynapses="30">
          -1.0582842243568070e+01 1.3724347024199748e-01 -9.4146822759916482e+00 5.3498762228500829e-01 4.2742868133560728e-02 7.8568715706017427e+00 4.3465483026419545e+00 -1.0181296756687405e-02 -6.1521516295224243e+00 2.5340808842777025e+00 1.1932419134633274e-03 2.7167396058441451e-01 -2.5623585318246159e-02 -2.3788767351898665e-01 6.8135469448613470e-02 1.0838006058657368e+00 3.8832422068441613e-01 -2.1886922023861036e+01 8.4923625614055744e+00 7.3310786789871845e+00 1.4893320021273910e+01 1.9717658044442818e-01 2.9834316950373347e+00 -1.6473149164420482e+00 -2.0569946470686279e+01 8.3124178720887643e-01 2.8552534685100657e+00 -6.3715061724905562e+00 -3.4119320997015650e+00 -5.9098931170307190e-01 
        </Neuron>
        <Neuron NSynapses="30">
          -3.4019601449102805e+00 4.0524775486640624e-01 -7.8055594812136275e-01 -2.2028810389673922e-01 -1.4330870238918341e+00 9.4574279682183615e+00 8.5201638547240888e-01 2.1279326743746605e+00 1.8997936865143139e+00 3.5068154275814196e+00 1.1490124748789210e+00 1.9909838837906919e+00 -4.6473298114723676e+00 -3.6491486007437640e-01 9.8915999955830503e-01 -1.3675639699594335e+01 -2.8844604927346431e+00 1.2443309018230659e+01 -5.7121840399723101e-01 6.5837564954455374e-01 -9.3179107607879486e-01 1.5429326864482369e+00 7.8804623069581747e-01 3.7814611801165299e-01 5.5588840250512839e-01 1.7435301668600482e+00 7.1020207051495463e+00 -6.8215705782071490e-01 -1.7721950258738628e+00 -4.7847066041736070e+00 
        </Neuron>
        <Neuron NSynapses="30">
          2.8762139909549356e-01 3.3952838941393038e-01 8.6830771058658378e+00 -1.8613440224001376e+01 6.0820822341910130e+00 -2.3261101709665422e+00 2.1311006162294603e+00 2.8025673451312043e+00 5.7249622888877671e-01 3.6604460888545671e+00 -1.6376609278025686e+01 -1.1450273772799509e+00 1.0243728969998447e+01 3.1380368355869961e+00 2.8307074395890092e-01 -3.5837505326810444e+00 -4.1874172982113095e-01 -5.8864328875030469e-01 3.7061188203084425e+00 -5.8262113259265158e+00 -2.7338302644358881e+00 -1.5630971609183099e+01 1.9137515487961732e+00 -1.0605384270350660e+00 -1.1955232794648316e-01 -1.6239005708036210e+01 -5.4462281408149300e+00 5.2099877067228357e+00 4.5379397939120629e+00 2.6554012182156916e+00 
        </Neuron>
        <Neuron NSynapses="30">
          1.8962320203686769e+00 -7.3027203624346249e-01 -3.8413898326532978e+00 -9.1900977366029846e+00 -1.1511421648479386e+01 -1.2198422045160399e+01 -1.2015281158727613e+00 2.8619782958714851e-01 2.7930265935161138e+00 -1.3735305166126858e+01 -5.4002564411570075e-01 1.1375838207257548e+01 -8.5003705449850067e+00 -2.1186907993271489e+00 1.7151789351930367e+00 -4.7784702543554083e+00 -1.2343728863587911e+00 -5.8273696330275604e-01 -1.9607208266183243e+00 -3.3633940484527769e+00 -1.4252488070515390e+00 1.3175781081574172e+01 2.3846154667277659e+00 -7.1512069240454046e-01 4.9335185712424217e+00 -2.9701933328086456e+00 -9.6482094953250890e+00 5.1167123123137594e+00 1.1139227766622355e-01 -2.7458873405827129e+00 
        </Neuron>
        <Neuron NSynapses="30">
          -7.9727446362866494e-01 -1.0136878057016587e+00 -2.4309831329234788e+00 -7.5827197405753444e-02 -1.4781037110917689e+01 8.1609320294230159e-01 -1.1636243170931543e-01 5.5712562550897196e-02 8.5915495412935994e-01 4.8464754213742917e-01 2.1734201254391355e-01 3.3082846228043744e-01 -5.4940661822636468e-02 7.3556634329526860e-01 1.3577255605846212e+00 -3.8638691801449818e+00 -7.5254145531174577e-01 3.5962044306369595e-01 -1.5960453433246768e+00 3.3563999882735829e-01 2.6439140134530592e-01 1.3495839905562971e+01 -8.2244930911883141e-01 5.5512516527588474e-01 9.5440002678126690e-02 1.8552519250098168e-01 -1.2462659909870551e+01 3.3836749435043911e+00 1.2261631406192987e-01 -1.4537656863619470e+00 
        </Neuron>
        <Neuron NSynapses="30">
          -2.5157322984000802e-01 2.6934151229927944e-01 6.8174156877104852e-01 -6.0129037336243227e-03 3.3990884946652833e-01 -6.6121430358402386e-02 2.5235662720672392e+00 -2.6462453168401784e-01 4.3583511797402913e-01 -1.5373485511821666e-01 1.0408969189263770e+00 -1.3333955503662587e+01 -3.1386309483029884e-01 2.5002147468508023e-02 -1.7755308940656347e+00 -6.3862370091158427e-01 6.5994309715458233e-01 8.9256361730653477e+00 -1.3344132399731170e+00 -3.6116152752693653e-01 -2.9973282442356863e-01 1.6012133039568322e+01 -7.8308654748669815e-01 1.5173632560996926e+00 -1.9502022147086501e-01 -3.3405656598149125e-01 -2.6890041601458559e-01 7.0589787786076844e-02 -2.8552229400674181e+00 -2.2301255510534643e+00 
        </Neuron>
        <Neuron NSynapses="30">
          -1.1895859610959660e+00 -1.4037001700610485e+00 1.5391146736929748e+00 -5.9149410609140564e-02 2.1012150842962014e+00 -1.3001057783380690e-01 5.4480778252134732e-01 -2.9013234656934954e+00 -1.5856354811381550e+00 2.7584904364180879e-01 9.0016801043920824e-01 -1.2725365546236119e+01 -2.0544113138159688e+00 -4.8360209521999364e-01 3.1042878605875113e-01 -1.6857740772243577e+00 4.0928737270902866e+00 -5.8774457727205869e+00 -1.0729492041227406e-01 -4.9031687548114600e-01 6.8293169159052658e-01 -2.0717947366964189e-02 -2.3217586653434710e+00 2.4231927558520199e+00 3.9533320640475911e-01 6.8004473924918499e-02 -9.3959540490757498e-02 -1.5189881009190207e+00 -9.6649478970937674e-01 -6.1623098834549465e-02 
        </Neuron>
        <Neuron NSynapses="30">
          -9.9524093960301252e-01 -1.9152307232980093e-01 -3.4035764128340924e+00 1.3746238287183965e+01 4.2243201933675918e+00 1.2331452075568803e+01 -7.3190517139444333e-01 2.2554940326148163e+00 8.6676680518318849e-01 1.1724771933247036e+01 -1.5179708759183799e+00 -8.1824187129632932e+01 4.5482600657945245e+00 1.7878173805900950e+00 3.0373068820208637e-01 7.3673272845261346e+00 -5.6783807162770822e-03 -1.2759393087046989e+01 2.3158476253854281e+00 -1.0931947934651123e+00 2.0651863769999839e+00 -1.8053415568204340e+01 1.5038328151831721e+00 2.9713607802022768e-01 -1.5032688456048220e+01 1.5546257676003775e+01 1.1254364545147045e+01 -7.1074696530338972e+00 -3.1796974774609671e-01 -1.8097316845564448e+00 
        </Neuron>
        <Neuron NSynapses="30">
          1.6761003222408579e+00 -2.4549002210861115e+00 -2.9214803341054862e+00 -1.8969026882285787e+00 8.7078526750278629e-01 2.6943667850837918e+00 -3.3712730332043219e+00 -1.7861174244424866e-01 -3.3146291770479785e-01 2.2134826321536956e+00 -8.4516999602673046e-02 -1.3568249774494742e+01 2.1592003825471555e+00 7.5455760894010062e+00 5.4266474654998942e-01 3.3896449823615713e+00 1.1519092782503879e-01 -1.1674662297786677e+01 4.3736473475688804e+00 -8.7280435125488576e-01 -2.2142011863080815e+00 1.0503087917813586e-01 -3.7637560539019244e-01 1.3483750038120141e+00 -6.9125254365779689e+00 1.1149714144908489e+00 4.9871626612456144e+00 9.6949105339117814e-01 2.7317114965171472e+00 -1.9118811961542392e+00 
        </Neuron>
        <Neuron NSynapses="30">
          1.5988251607517185e+00 -4.2263327294591778e-02 -3.6772099410865238e+00 -1.8139409549600856e+00 2.3432363892449160e+00 2.2082400170947578e-01 -6.6953088086399148e-01 1.3688468268573384e+00 2.3533717859192089e+00 7.2271985517204940e-01 2.0088914044064139e+00 8.6020133546981761e+00 1.0787516034925251e+00 -1.8390706924208486e+00 1.6472089151035469e+00 -4.1558088486837343e+00 8.8668449958639262e-01 3.5374698220742191e+00 -2.7537913368870388e+00 -1.5873738220032982e+00 -2.6497554039205391e+00 -7.0821682440105316e-01 5.0678808546186789e-02 -2.1359179974333098e+00 3.3919528910395997e+00 -2.6689175800666507e+00 2.4495886227432466e+00 1.8637427668361506e+00 2.6443004288386422e+00 3.5432134015578298e-01 
        </Neuron>
        <Neuron NSynapses="30">
          -5.6151474287455705e-01 -3.1631168567973017e-01 8.4801917285946452e-02 -2.8033059951850468e+00 4.2463289682990215e+00 -3.6636551581650406e-01 -2.4272269867940808e+00 -1.3936642489014313e+00 -8.5598017519350955e-01 -1.1163083132043425e+00 1.9848796472482888e-01 5.2459333086591817e+00 -9.0104926180390543e-01 -1.2731720454132429e+00 1.7765647304301924e+00 -4.2886690844373471e-01 1.5384221258379414e+00 1.1144226612597961e+00 -4.1127963983863047e+00 -7.1148424398493815e-01 -3.9716410962222652e+00 -4.2570965115342698e+00 -6.0262701262447305e-01 -6.8217863699862136e-01 8.7287306639095452e-01 -1.7410949492065166e+00 1.9475110503115469e+00 1.1281570658870514e+00 5.3907121067731401e-01 5.8704561194496060e-02 
        </Neuron>
        <Neuron NSynapses="30">
          1.5495704259581886e+00 -1.3534807590800386e+00 -1.4181550383762103e+00 6.4258292660364558e-01 8.8205332016885016e+00 -2.3944608405193349e-01 7.3487565901967011e-01 -1.6283718327273700e+00 2.1980668745281537e+00 2.3716558618501266e-02 -2.3737123934436583e-02 6.7284581936296206e+00 1.2675889939120144e+00 -1.5989128814026412e+00 1.1791032704023285e+00 -1.8911020793781210e+00 -6.1778474622427604e-01 -1.1477600601337297e-01 -1.4692080631889415e+00 1.3802625498213952e+00 -2.4052468067444002e+00 -9.1210210286567097e+00 -1.2448077176769496e+00 1.4009065790556559e+00 5.8503576180823524e-01 -4.4540092122240109e+00 1.3665182227021773e+00 9.6142423477671574e-03 2.1779364257521623e+00 2.3833372429432029e+00 
        </Neuron>
        <Neuron NSynapses="30">
          -1.1317696719626156e+00 -1.6824274873659175e+00 -2.4110181239713713e-01 -5.1632119612397309e-01 8.5159148727507414e+00 9.4942426419244652e-01 -1.6972733743116339e+00 -9.0414381714504033e-01 1.7629000501763046e+00 -1.4259209993540067e+00 4.8875632290370308e-01 5.8452657039616565e+00 -7.2512551089738286e-01 -3.5809993906928068e+00 -3.3454902345510878e-01 -4.1606611554542416e+00 9.0316759077254394e-01 9.2794542135108316e-01 1.2449214221247356e+00 -3.2201703788272434e-01 -5.2332997314104199e+00 -1.1794616881601749e+01 3.3232050674197224e+00 1.2105434301403672e+00 -1.8016040161564406e+00 -4.4173565656822866e+00 3.8092192489078029e+00 -4.5683808301035617e-01 1.8105932564606548e+00 -4.2076404300632814e-01 
        </Neuron>
        <Neuron NSynapses="30">
          5.3341133016826936e-01 -1.6685362549158520e+00 1.0507507150706452e+00 -2.4883818713961625e-01 -1.1524841014427714e+00 -1.2552648615334772e+00 -1.3849356816536740e+00 1.1451047331437278e+00 9.1990474020024152e-02 -5.4517889017383403e-01 6.0751830691488595e-01 1.7322797004878061e+00 9.6832467219686524e-01 -1.4315323887617786e+00 1.0374709680241989e+00 9.2100426357810661e-01 4.5797820449085541e-01 1.4117576721278302e+00 5.6910839519261174e+00 -3.3343577775573707e-01 -1.3022286763366526e+00 1.0092542339552628e+00 2.1713813604654195e+00 -4.6842504266034946e-01 -3.6130046510581312e-02 -9.5722443884301756e-01 -1.7708730597289315e+00 -1.6219237246050902e+00 3.7286749485678261e-01 -2.3691028481935739e+00 
        </Neuron>
        <Neuron NSynapses="30">
          -1.2283132346868622e+00 -3.9036469767778920e-01 -7.5143981035613811e-03 5.0037594406838282e-01 1.1322747226305465e+00 9.6000626573232561e-01 -7.7730751268976483e-01 -1.2873403287434260e+00 1.6170183748329179e+00 5.3721832149673721e-01 1.3249053215862716e-01 -1.3658347780482984e+00 -9.4898033363063317e-01 1.4348747347223219e+00 -2.7620714916129763e-01 -1.7347319300804522e+00 -5.6147114091590444e-01 -1.5399176466705238e+00 5.5686129969461637e+00 -1.3992248494705492e-01 1.0920571283346872e+00 -7.9984598559140296e-01 3.0905345435407994e+00 9.4836311919341287e-01 1.4189401445217301e-01 8.7125832163803718e-01 2.7311115897371985e-01 -3.0466796078919174e+00 -4.2089711481173575e-01 -1.2595674141891051e+00 
        </Neuron>
        <Neuron NSynapses="30">
          2.0109885583034841e+00 3.0093016071640140e+00 -1.0054723408206986e-01 1.5984269624519856e+00 -2.6322614335066192e+00 1.1593429303883045e+00 2.7738419950169113e-01 -3.7943474371929659e-01 2.7560600938309952e+00 -5.3472045211240965e-02 -4.8419603165607727e-01 1.1267700479822039e+01 -2.1361799199492379e+00 -2.0778026242285225e+01 2.9017753903047472e-01 -5.3924833760914765e+00 -1.8963417013684845e+00 5.5335512825136659e+00 6.7166934252948607e-01 -6.4017810269880748e-01 -1.2444825987203780e+00 -8.2867812329428503e+00 1.0291913816773253e+00 7.5805916973909915e-01 -6.0786040644627093e+00 -3.4483622353100918e+00 4.5056977971377004e+00 -9.1460741262663137e-01 -1.2345952324367824e+00 -1.6806042950957818e+00 
        </Neuron>
      </Layer>
      <Layer Index="1" NNeurons="31">
        <Neuron NSynapses="30">
          -1.3534571021562130e+00 -6.1614521507131315e-01 9.3086363358246338e-01 -7.7070909307180679e-01 -1.1697472688480532e+00 2.5265118939431985e-01 -4.7641225225408030e+00 -3.3248278414844645e-01 5.0527562959099548e-01 3.4346557695435570e-02 -2.0791161898704799e-01 3.8636637691333175e-01 3.1776437465295276e-01 -6.8253602594703211e-01 -6.1987773362597520e-01 2.8525669943154903e+00 2.5827940801510874e-01 1.3660512036881756e+00 1.9053333493009241e+00 6.6857108801793352e-01 1.7897859264308837e+00 -2.6449646742353100e-01 1.9933691072566537e+00 2.5301691343404042e-01 -2.4761482809308766e+00 -1.7500809541409407e-01 -3.3869510297099653e-01 2.3985753127933082e-01 -7.1306002062759999e-02 3.5226442205122488e-01 
        </Neuron>
        <Neuron NSynapses="30">
          -2.0385152979173764e+00 -1.5806777355690886e+00 1.3931656294341279e+00 -3.9297023601067922e+00 2.6671261140088900e+00 5.3327334432571505e-01 -4.1314027383671235e+00 -1.3354723107850042e-01 1.4419825361835992e+00 -3.4290729716624293e+00 -4.8991712093773970e-01 -2.0753789924316641e+00 5.4553161819072571e-01 -1.8065972149107623e+00 -2.4609526765534873e-01 3.7775211492500455e-01 -8.8943186061562773e-01 6.6448452969583827e-01 -8.5639853617654826e-01 7.5671321891128596e-01 1.1797435850956093e+00 -1.3220724794972605e+00 -1.5074794905027293e+00 1.9005321653774637e-01 1.2624738971322477e-02 2.0042199626578259e+00 -2.0919908575987112e+00 1.2577410793570964e+00 -5.9609111507938994e-01 6.8378947620324526e-01 
        </Neuron>
        <Neuron NSynapses="30">
          -1.4089582469572457e+00 2.4884778464240886e+00 -3.0197489203026773e-01 3.8526235667819924e+00 -2.9328983162392133e+00 -2.8685314479617652e-01 -1.0383704288442923e+00 3.4335722947960051e-01 1.3190399116175558e-01 2.5833932529490515e+00 -1.8680416782730074e+00 -9.6752487225720085e-01 -1.5472214293038650e-01 1.7034174832699187e+00 8.7603691952839347e-01 -1.5561673094994237e+00 1.4452459639416508e+00 -3.4582088932499772e-01 8.1044826149567994e-01 -2.6539197073261428e-01 7.4904046246737543e-01 6.1838409603628275e-01 3.8961406070420090e+00 -5.5397849850359682e-01 4.4418874918977602e+00 4.0612477118824852e-01 -4.5815764573297230e-01 -9.0104321188195902e-01 -2.2600540462547880e-01 4.5127304550631175e-01 
        </Neuron>
        <Neuron NSynapses="30">
          5.9374133269415685e-01 1.0642557146422595e+00 3.9326308019866793e-02 -5.7858204555531645e-01 6.7436205763080148e-01 1.7670160251150635e-01 3.7685608752118871e-01 5.8880482376433663e-01 1.3650910152574994e-01 9.1841043671654701e-02 1.3160380780206296e+00 3.1258614704726345e-01 1.9702052630528422e-01 -6.9264469475667734e-01 8.0984357234016313e-02 -1.5785169282448932e+00 4.8934902033478067e-01 -6.0231790778571506e-02 -1.3768832447447241e-01 1.4713282877084750e+00 5.4737234588273620e-01 9.1817614359381905e-02 7.9526417869458688e-01 4.7699359801461738e-01 -5.7438336615519570e-01 -2.2934321567305713e-01 9.3826452800031190e-01 -2.7429284262886990e+00 -2.8167359959038368e-01 3.3860444315310279e-01 
        </Neuron>
        <Neuron NSynapses="30">
          -1.4978683514670212e+00 1.2409135897452261e+00 6.5467513178515591e-01 1.1552734114517269e+00 1.1048997113910997e+00 -7.8888034940821838e-01 4.3684066130814463e+00 1.0524232246247535e-01 1.5351338297657538e-01 -1.2054905798135053e-01 2.9161277389113778e+00 5.8805183277920958e-01 2.6266639678402446e-03 8.7127602172006924e-01 1.2642096232756552e+00 2.2816079522984123e+00 -1.8862015383948998e+00 2.5186036182199834e-01 -2.3979542406197782e+00 -2.3172815116928738e+00 5.1067315840350469e-01 1.8628428255723672e+00 -1.4640569985764766e+00 4.1319651001860483e-02 -1.8150133668631316e+00 4.1031325255848766e-01 -2.4816757891137158e+00 -3.1004703662307187e-01 -1.5593357137565678e-01 -1.0180531446517995e+00 
        </Neuron>
        <Neuron NSynapses="30">
          2.2171635402701634e-01 -3.1001533006318122e-01 -1.1456475336524009e-01 9.0332288186658793e-01 6.7852037740356796e-01 5.6447065779749050e-01 1.9432188526400401e-01 -2.6110846879607230e-01 -9.1292527707208856e-03 5.4183045709573252e-01 -1.1389068541500484e+00 -2.0674270704689973e-01 6.1416410907581209e-01 1.0310440812998667e+00 1.1779023672589025e+01 -3.1359879145825048e-01 -1.2527176524120391e+00 1.0283969693006527e+00 3.0890688474893868e-01 -5.0014794926960204e-01 2.7779919882750559e-01 1.4125364709225904e-01 4.7273955613912283e-01 -1.3741558792896444e-01 -1.6085371460558593e+00 -7.2508162386191177e-01 -6.5573194465698914e-01 -1.3166213596729046e-01 -3.3758564883057407e-01 4.5585959813754129e-01 
        </Neuron>
        <Neuron NSynapses="30">
          -1.1152778031633022e+00 -1.0307649066952154e+00 5.2035409315636916e-01 -8.9915400094305664e-01 3.3185456830929733e-01 2.7237332033923822e-02 1.0864718143834576e-01 -3.5186855234358154e-02 -1.8653198798588558e-01 -2.4738096547557720e+00 -3.5571053414484671e-01 -5.0472675607444221e-02 -9.6826092006166958e-02 -6.4459736371897391e-01 5.7901958115626440e-01 1.4110940288020879e+00 -8.7852441702198492e-01 -6.1300517423306493e-02 3.7650784200696935e-01 3.1132696118151165e-01 3.1064911664607391e+00 1.4241654669265269e+00 1.0439193559239293e+00 -1.9998123900279366e-01 -1.6511741451742863e+00 5.1313259367012154e-01 4.2486008680701992e-01 -8.4404661644922663e-01 8.6639470178699107e-02 -2.7960337162373640e-03 
        </Neuron>
        <Neuron NSynapses="30">
          3.0059290025637413e+00 -8.7360184102123961e-01 -9.7283242821739901e-01 1.3950498567444607e+00 -3.9516762871830918e-01 9.0553162899216122e-01 -1.6121440501350108e+00 9.5946742631955587e-02 -2.0647986506770302e-01 -1.3020282113618473e+00 -2.5748957591603672e+00 -2.4865761315187093e-01 6.7016840513849429e-01 6.1704504496191255e-02 -9.6047169624075901e-01 -9.7195292768429364e-01 -4.2055264909198797e-01 -9.8354837922380645e-02 2.2791140274101647e+00 1.4920803862785450e+00 -1.1600591290297959e+00 1.9033903351478487e+00 2.4992678261664375e-01 -3.0602014635354330e-01 -5.1541406556083702e-01 4.4495523714415799e-02 8.3980658939645469e-01 9.9418311437005538e-02 1.5172631972925213e-01 -2.1159005841988807e+00 
        </Neuron>
        <Neuron NSynapses="30">
          -3.4161812710820116e-01 -1.5329553130626017e+00 -9.7938377453862002e-01 2.7873738021746042e-01 -1.1788938950967016e-01 6.0777658420744618e-01 -3.7819332396058464e-01 3.7790361477062528e-01 -1.2263221522747161e-01 6.7896535338200525e-01 -1.3456362375396482e+00 -1.1192049656485319e+00 -1.4957603552831455e+00 -3.7308547742785830e-01 -4.4766948212240187e-01 3.2137339024541101e+00 1.6791087591136422e-01 5.6681868474871633e-01 2.0603892638208503e+00 2.3615317606731415e-01 -2.4295516953850154e+00 1.5180311285994417e+00 -1.6081565555294774e+00 7.3353910293825667e-02 -1.1232382781556385e+00 9.0321189115415229e-02 2.4179702703866046e-02 -1.6199134844092333e+00 2.0510072879516258e-01 5.2795089026993292e-01 
        </Neuron>
        <Neuron NSynapses="30">
          1.1268085801440164e+00 4.3118955264165543e-01 -8.2991962920367923e-02 -9.8224644046861476e-01 -1.3936540781429319e+00 -1.4078353877191499e-01 1.5453973057387747e-02 1.5934439439611747e-01 1.6537435728664168e-01 9.7159342758358480e-01 1.4357940445235809e-01 -2.0215914752624648e-02 -5.7243923439216748e-02 -2.0176931034940342e+00 7.5110325815410182e+00 2.0504206152248985e+00 -6.1312417597731725e+00 -8.8031142190321143e-01 -1.2693361587047025e+00 -2.5572373819655287e+00 3.1143543888183336e+00 -4.1201761700602185e-01 1.3912895016512539e-01 7.8564508154924870e-02 -4.2798073222794891e-01 9.5180472510624325e-01 4.4578936188361323e-01 -2.4555097734360363e+00 -2.6102027261717525e-01 2.3771131679989155e-01 
        </Neuron>
        <Neuron NSynapses="30">
          -1.7413229684993414e+00 -6.6631867048672178e-01 -1.0091424001819103e+00 2.5469064835573629e+00 3.0241567701420378e+00 -9.8993847602611984e-02 -9.2805614055584684e-01 1.3520303369291606e-01 1.9649099870253470e-01 2.5640875606549285e-01 -7.5552834030951566e-01 1.4514722621640055e-01 6.0848482970321881e-02 -4.3978108465013765e-01 2.7017922462971433e-01 -9.0488070905428564e-01 1.0891123614387377e+00 1.3246449629344198e-01 1.3852825126923747e+00 -2.4934545111525211e-01 -1.1128133226909340e-01 4.9588072543083173e-01 7.5823532462327758e-01 -2.2312187566422853e-01 -9.8124597270280811e-01 3.6172244722822882e+00 5.0708847447548744e-01 -1.2633175332515487e+00 4.7383007346222977e-01 1.2072030193744028e+00 
        </Neuron>
        <Neuron NSynapses="30">
          3.0193859184259114e-01 -1.7939083408461429e-01 -5.7937103150886193e-01 1.7486931514726814e-01 7.0069881351100893e-01 1.1755389744868253e-01 -2.3559461942214779e-01 -2.0865888995184365e-02 -2.7972393728075684e-01 3.2041023040085364e+00 3.2235215221311481e-01 -1.1120635802046349e-03 3.7092578079721228e-01 1.0796832398807357e+00 4.6070971756996115e-01 3.9390449001810661e+00 1.5296115843265934e+00 4.1482761852484895e-01 1.6754604060063116e-01 4.9370064899326840e+00 1.4184815758421956e+00 9.8914863332718228e-01 5.0957887678502300e-01 9.0450314540298060e-02 1.9247758092502329e+00 1.3610383876424785e+00 -9.4995722518105630e-01 2.0805421575665065e-01 1.8858423740841934e-01 2.0007372926222983e-01 
        </Neuron>
        <Neuron NSynapses="30">
          2.8124485631556490e-01 1.1990928676840193e+00 2.3946671916673653e-02 9.5963326652612913e-01 -2.5781566277825402e-01 9.0420318024688884e-01 3.7042181349463815e-01 -4.0134652730191273e-01 -4.1865227702848473e-01 8.0727710792895147e-01 2.5898442990390047e-01 -3.2832821767246556e-01 -4.1546541586952937e-02 -3.3027233044509197e-01 3.8222202580096820e-01 -3.2796832440108004e-01 -5.3319016183868369e-02 -9.0719834285513234e-01 -7.2649263605839798e-01 5.6583228266151409e-01 2.9791769063347517e-01 -3.5827599885093697e-01 1.0780818760171680e+00 6.3047646764777454e-03 -5.5234854879615614e-01 -1.6894402110449172e+00 3.9615265584655340e-01 2.2506318889636301e+00 -1.5273997135320169e-01 -7.5011103156315173e-01 
        </Neuron>
        <Neuron NSynapses="30">
          -9.5360546013542324e-01 8.0608205823109425e-01 9.1973628339439659e-02 -8.6819740212502772e-01 2.2806086006528341e+00 -1.2933718776816712e+00 5.7280475173110519e+00 -1.3026275879079532e+00 4.1308058620203619e-01 -2.7178755715447749e+00 2.6791334798420769e+00 3.4071219794930405e+00 -4.5906882780618752e-01 -1.3654628985775694e+00 4.5292356974162723e-01 -2.7969948980098452e-01 -1.7826322957055467e+00 2.1594696577658299e+00 -1.4115134349274381e+00 -4.6857897427539426e+00 4.7732737541607206e-01 5.4004370082941115e-02 -1.4521950291557861e+00 8.5977229774900576e-01 -1.1957945545113855e+00 -5.2485798514390869e-01 -3.3111754454850431e+00 -7.3974391598113094e+00 -9.7874455978244457e-01 -4.5775521975517808e-01 
        </Neuron>
        <Neuron NSynapses="30">
          4.8882632453126695e-01 -6.7354368438439072e-01 -2.2852943930837377e-01 -4.9007346118706607e-01 -8.1214242218937160e-01 -1.0016352391902861e+00 -7.8330954635649308e-01 -1.5006110151732828e+00 2.1354100663517089e-01 -3.2233319457976140e+00 -1.9957617175914478e-02 1.0193892224361021e+00 3.2066335237682070e-01 -2.5705836745941735e+00 -8.6045224954584887e-01 -3.3236300746163250e-01 8.4982491566354934e-01 1.9087791937651108e+00 1.3864546519729590e+00 -1.8846321349198836e+00 -7.8837713423367350e-01 -2.1980695385395899e-01 -1.0279195236831344e+00 -1.1660106256344884e+00 9.5624918622593547e-01 -1.7336869566818183e+00 2.2340030924235990e+00 -2.1421834926221550e-01 -3.1232907527643716e-01 -7.6747271548308837e-01 
        </Neuron>
        <Neuron NSynapses="30">
          -5.6741393014518560e-01 7.0658623286912225e-01 1.2831921195035692e-01 -8.4932232352346523e-02 -1.3483965932368451e+00 1.7318683185873746e-01 -1.0616227279350348e+00 -1.2784468965978008e-01 1.3942047788075548e-02 -8.4867843391951392e-01 4.3075002758620409e+00 5.4135332039510065e-01 6.0492244571167947e-02 7.5058550191451079e-02 -3.6254174169846609e-01 -2.2432451157130280e+00 -5.3985492728007412e-01 -3.4062178418344263e-01 -2.2658630448558381e-01 -4.2593895992725148e+00 1.0600659222451259e+00 1.1555645224096800e-01 7.1349185935577686e-01 4.4932618581979800e-01 -4.2159559080304776e-01 1.0474717081422988e+00 -1.0641659201669944e+00 -7.6486224805872838e-01 -1.7369037435140700e-01 -3.2484055971851500e-01 
        </Neuron>
        <Neuron NSynapses="30">
          1.8986760096491757e+00 3.4087609088605714e-01 -5.8771743851160796e-01 -2.7368364534690093e-01 -4.7006374205119789e-01 1.5751038657370325e-01 1.0532804883711275e+00 -2.3198307556013417e-01 -6.2744394397361805e-02 -1.6503583630142116e+00 -8.9219140541135999e-01 4.5204690774984541e-01 -1.1354164249193982e-01 -1.2723689894311287e+00 3.2377124058454210e-01 2.2643812483034562e+00 -4.7149248301079366e-01 -3.3138709138943118e-01 -8.3129715590650433e-01 -1.1272886684684817e+00 4.1530823392583321e-01 5.4300708438909395e-01 1.0174695557350271e+00 -3.7046321379212946e-02 4.1945316846875824e-01 1.5897569699925416e+00 -2.7862419484502532e-01 -1.0773846901633375e+00 -3.0490456629179391e-01 -4.1223425851917672e-01 
        </Neuron>
        <Neuron NSynapses="30">
          -2.4032462755761810e-01 -2.2503510263755970e+00 4.2018398932719199e-02 -8.4639017241686521e-01 -2.4396751399107430e-01 -2.2784359484440750e-01 2.9295410178933673e-01 -8.0923804441775771e-02 -2.6537700791297209e-02 1.7024223078113654e-01 5.0559126883706829e-01 -2.6459369441014335e-01 -1.6004396023319231e-01 2.5440993832858538e-01 3.4854346200418440e-01 9.8385050655465323e-01 7.4041255004884066e-01 3.3458659591341524e+00 5.5318891501304579e+00 1.3882688032349788e-01 6.3254144902131682e+00 -2.1534212002125933e-01 1.1010983338320692e+00 1.1755816691918497e-02 -4.9794145079006030e-01 -2.2285913085805537e-01 -7.1684847516574418e-02 1.9701758455543419e-01 3.1972694647343208e-01 -1.4808967404714836e-02 
        </Neuron>
        <Neuron NSynapses="30">
          -2.4810242070401340e+00 -7.2976959510114858e-01 5.8399867924842674e-01 1.3468813522145062e+00 -3.6097198383064294e-01 8.0655818092718018e-02 2.2873631792021204e-01 -4.9822405054869810e-02 9.8507180868903491e-02 -7.3411623399187928e-02 -3.9043543708401901e-01 -3.2404367365670367e-01 -7.1747551105672380e-02 -4.2732656756736775e-01 -7.0663455282065024e-02 2.3572625928107208e-01 -2.2484436816841630e-01 1.1338148760146673e+00 -2.6952396202441309e-01 -6.5520739492474442e+00 -2.3139010613816131e+00 2.7376142182996523e-02 -9.4580129576182104e-01 -1.7769963447469356e-01 -2.1639118053906179e+00 2.1756585944911772e-02 4.4269135349653654e-02 3.1960303109997944e-02 -2.4885899744120782e-01 -3.3235025823836489e-01 
        </Neuron>
        <Neuron NSynapses="30">
          2.8157808574124338e-01 1.3529326739702114e+00 -7.1361238215155454e-01 -2.0823634334306684e-01 6.0847964104543195e-01 4.6595520916644267e-01 -1.3364935910153017e+00 1.5843000596599693e-03 1.2600545671509453e-02 3.3832248154578048e-01 -9.0479166028882341e-01 8.5250334612489972e-02 2.3336613687427929e-01 -1.2643307700896356e+00 2.8350715974382417e+00 -1.3513410105578301e+00 -3.0704998931857079e+00 -2.2273929470724325e+00 -1.1339348817054076e+00 5.8809224525363489e-03 1.1025317603700002e+00 -2.5865552474492004e-01 -9.1419804552803074e-01 1.1344240410756644e-02 -1.9291619903853756e+00 -4.5430787321340360e-01 7.1046129648400613e-01 -2.0066984597208132e-01 1.8281168883283577e-01 -7.0894963080510509e-01 
        </Neuron>
        <Neuron NSynapses="30">
          1.6051437821029857e+00 6.3338964454206295e+00 -9.3696581704507786e-02 -5.9134981838306488e-01 -1.6312154038194344e+00 9.7001476691526534e-02 8.1196802661161999e-02 -1.4674904454300802e-01 -1.4465107424578533e-01 -4.2003868205753081e+00 1.8256017260844482e+00 -6.7887760157207988e-01 -4.0468209850477471e-01 1.2378156292409772e+00 2.4622110227518461e+00 -2.4241683456239880e+00 7.0038297790711013e-01 -3.8931383198030495e-01 -3.1608817017258111e+00 4.8516788843293579e-01 1.7856335252465090e+00 1.9228314715967969e-02 1.3825332057723714e+00 -1.5153225990040897e-01 1.0154682709845619e+00 9.0163290719957623e-01 1.0228219700701380e-01 -9.7644605968118858e-01 4.6583634769605552e-02 -2.0690770755533724e-01 
        </Neuron>
        <Neuron NSynapses="30">
          6.2979500661344245e-01 2.3792434573317428e-01 3.6222487073913689e-01 1.8694562420077030e+00 -5.3717099568732829e+00 -2.0785916131539925e-01 -7.8660121719057274e-01 -7.0736483690102686e-02 1.8471217425609218e-01 1.7038583613079745e+00 -3.4477732108664322e-01 -3.2995127738649854e-01 4.1314426524861642e-01 1.0971127920207757e+00 4.7633163398232523e-02 -2.0640232629569164e+00 2.2150085389836143e+00 1.1668624538766414e+00 1.9134994511917811e-01 6.5511137328360025e+00 1.0929464290766753e+00 9.3119651147837290e-01 2.7704695769937389e+00 -3.0539801705345226e-01 6.1729916593467549e-01 2.5021576798884384e+00 -6.7396302650608690e-03 1.4710651238159622e-01 -5.6458618232481765e-02 4.2455415485865483e-01 
        </Neuron>
        <Neuron NSynapses="30">
          8.0554793793234314e-01 9.9586421889190269e-01 1.7772232691890796e-01 -1.0171595311768804e+00 4.3982011774151825e-01 2.5313502564728407e-01 -1.8549370208066709e-01 -1.5895136260484682e-01 4.3383079132307982e-02 -3.3131390200780308e+00 9.4046866599574019e-01 -7.2443501705881583e-02 4.1461913239031187e-02 -3.3555203734684519e-01 -8.7683799494692261e-01 7.2312460266053713e-01 -8.3476654904542724e-01 7.7990591356802447e-02 -3.5018628033882332e-01 -9.2635516483663938e-01 7.0978189990393115e-01 1.3591156279120400e-01 -6.5691483630584557e-01 5.1014450512497887e-02 -6.4329119796898326e-01 3.8653411602301729e-01 -3.2580027368391340e-01 7.9693983528482859e-01 1.8935824748497151e-01 -6.4508365628055925e-02 
        </Neuron>
        <Neuron NSynapses="30">
          -1.7074868108681585e+00 -2.7626667555464599e+00 -7.2624911916909041e-01 -2.0935966167844602e+00 -1.0849129872458119e+00 1.2298479437038379e+00 1.7922266705638537e+00 2.8269972284990191e-01 -7.8293329005606327e-01 3.5697184544425564e-01 -5.0202564707269137e-01 1.8537541529786892e+00 -1.0455956780137861e+00 3.9795696064735264e-01 1.3197678671971580e+00 6.8725079495040942e-01 -1.1118147750054224e+00 -5.9965381026797393e-01 2.4587856285441747e+00 -1.5423182168690326e+00 -1.1511650303545651e+00 1.7788052153350189e+00 -9.4205886087790613e-01 1.1564938253800772e+00 -3.9875067475873776e+00 1.5220365540517216e+00 3.6346009853164907e-01 -3.2310385625315470e+00 -1.3460689427994939e+00 3.2834046591194171e-01 
        </Neuron>
        <Neuron NSynapses="30">
          5.7458821575926688e-01 -4.4028400355585140e-01 1.3400948550861558e-01 6.3325167362807520e+00 8.3813800960373586e-01 2.4412953688222036e-01 9.6438909574594282e-03 7.9783063404652479e-02 -3.4342031593466563e-02 -1.3704635818406721e+00 -1.2980580128770114e+00 2.1107539173909365e-01 -6.5386709157846529e-02 -2.1817959493229905e-01 -5.4558202879774944e+00 2.2508336785083799e-01 7.7809105883468304e+00 1.3818690360353643e+00 -5.7470809588927230e-01 -4.1036723460913138e-01 8.1406735333661508e+00 -4.4842032236204915e-01 3.2048860033682991e+00 4.2195020936365951e-01 9.6568764561194453e-01 1.3907842778527837e-01 1.3308092469648725e-01 2.9926282824352562e-01 -2.6790821006734766e-01 -3.7711501607407766e-01 
        </Neuron>
        <Neuron NSynapses="30">
          2.3206464749911151e-01 5.7337328185497138e-01 -4.0804814985477772e-01 -3.0035028316854686e+00 1.6385645655578911e+00 -9.1106460571063486e-01 -5.7010572995217690e-01 -9.8049111989907911e-01 -1.0194027072929064e-01 -5.7609545080064950e-01 1.0820377538609430e-01 1.3727488294883623e+00 1.3630162410688493e-01 -2.2992814753108761e+00 8.3122212655371530e-01 -3.9175846998936068e+00 9.0202684328465887e-01 -5.9749527186212292e-01 -6.8063104390724971e-01 -1.2071322060778329e-02 5.6912168715854261e-01 -9.0894962796574974e-01 1.1950030743825711e-01 -6.4675288777714626e-02 2.0973783688995264e+00 -1.7207053078598751e+00 8.2986192650247492e-01 -1.1529584012036647e+00 -4.0330856760949246e-02 3.5747298130417271e-01 
        </Neuron>
        <Neuron NSynapses="30">
          -4.6757119974039183e+00 2.2299977793733294e+00 -1.5129196290400940e-01 -4.8787909093161302e-01 -5.3386299492960121e-01 -9.8950356405566625e-02 -1.2237602670584881e-01 4.4966409669379720e-01 -1.3623134269521176e-02 -9.3205743593886961e-02 4.8727747646157976e-01 -5.4294968008459316e-02 -1.8399531508577316e-01 -1.9191647618802388e-01 -3.0799378483330841e-01 -2.4806679113418977e-02 -2.1492506258302840e-01 -1.5077547089428522e+00 -8.0704498764883159e-01 6.1312840509433164e-01 7.5764099269183416e-01 -1.8982003857056676e-01 3.4875127986022414e-01 8.4978872548064979e-02 -1.1882251321179740e+00 3.1798494129954008e-01 5.1094732344539606e-01 -4.9377558311478065e-01 1.1362799744413840e-01 3.5445691731445567e-01 
        </Neuron>
        <Neuron NSynapses="30">
          -6.3589031233155080e-01 -6.1006319550500476e-01 -1.4433451157906921e-01 4.8425053696687143e-01 -1.5272779278460806e+00 -2.3459217249631467e-01 2.2627229124952450e-01 -1.5577165255850126e-02 1.6228403376878228e-01 -2.1089697852345662e-01 1.6184034870995709e-01 -8.5318253556671657e-03 1.0988148107439052e-01 4.9952579645178113e-01 -5.5937152279168789e-01 1.2854123602093928e-01 -2.4758746120361830e-01 1.0935127499344042e+00 -1.2814418215119177e-02 1.2399852820045895e-01 -2.0164548493101617e+00 -1.7540471036315039e-01 1.4552918168118687e+00 -1.4210491209139423e-02 -3.0884757916976358e-01 3.0438574071616903e-02 -5.0626445046786017e-01 -2.1117842801430875e-01 2.4037824615004040e-02 7.1840069968588910e-02 
        </Neuron>
        <Neuron NSynapses="30">
          2.0478631959938616e+00 -7.3160999487507972e-01 9.4581910658467971e-01 -1.1587313145171621e-01 4.5909002158973233e-01 4.6643362662144655e-01 -1.2817295866725049e+00 1.0796062096185717e+00 1.9202081710047009e-01 1.7690794384188102e+00 -2.5017132599512215e-01 -4.8923458783298790e-01 3.4562443231791901e-01 1.2336713067175553e-01 -1.0298521309530473e+00 -5.2373417699891256e-01 1.9455044181704328e+00 2.6711985209336618e-02 2.5891836166039806e+00 2.0010593561440895e+00 -1.8648607383083906e+00 -9.0307101485413843e-01 -1.1859436782130410e+00 2.5539235513360503e-01 7.5350034108735231e-01 2.4188095854086228e-01 8.8480756746617747e-02 1.4631109309661017e-01 -3.3235107416297255e-01 5.2159518172766733e-02 
        </Neuron>
        <Neuron NSynapses="30">
          -4.8971831741052724e-01 3.5800347044139347e-01 -3.0386377259540975e-01 3.4575574600037640e+00 1.0163161566547829e+00 -5.0098369573132340e-01 1.0195733915444700e+00 -6.9163452132368755e-02 -3.0711650654777894e-01 9.4463710640461537e-02 -6.1426251416543717e-02 -4.8666856252499868e-01 -1.2403371173773074e-01 1.6409010937706126e-02 5.1372555655050700e-01 7.9183641271128846e-01 -7.1210334727681146e-01 1.2678944420364744e+00 3.2932070651623224e-01 -2.3104878981320303e+00 -2.6111897984057784e+00 6.3344005951679078e-02 -7.3756652700705694e-01 -4.1305784294133713e-01 -1.9472144637620019e+00 2.0235484676929824e-01 8.6495323401377533e-01 5.7937434084956041e-01 1.5174054169157286e-01 1.8923261474022443e-01 
        </Neuron>
        <Neuron NSynapses="30">
          -2.2906636778029656e+00 1.8154763613224252e+00 -1.3627198636867410e+00 2.2802391386599776e+00 1.4470352086707923e+00 8.7215857829886212e-01 2.3096373936879502e+00 -5.5478507418417455e-01 1.2364057100005495e-01 -1.6512944256355913e+00 1.6398842294996387e+00 2.3047034975743916e-01 -5.0162458166171608e-01 -8.8629123467739601e-02 7.8841319815443578e-01 -2.9197241141722690e+00 -2.1773988143471348e+00 1.5910587484305851e+00 -1.0357701717838168e+00 -1.0324533478213853e+00 -3.2030621416498795e-01 1.2120469454535308e+00 3.2023530438625807e+00 1.2747760926395431e+00 1.0062042214516982e+00 -2.2605285496744933e+00 -6.8761134701400647e-02 1.0126327682025440e+00 -1.1906217448998428e+00 -1.6598755132785989e+00 
        </Neuron>
      </Layer>
      <Layer Index="2" NNeurons="31">
        <Neuron NSynapses="1">
          -2.5231262243552627e-01 
        </Neuron>
        <Neuron NSynapses="1">
          5.2829404313965045e-01 
        </Neuron>
        <Neuron NSynapses="1">
          6.1092284631302107e-01 
        </Neuron>
        <Neuron NSynapses="1">
          -1.4726251873311053e-01 
        </Neuron>
        <Neuron NSynapses="1">
          3.9418807677974232e-01 
        </Neuron>
        <Neuron NSynapses="1">
          5.7874042214094812e-01 
        </Neuron>
        <Neuron NSynapses="1">
          6.2066294991676152e-01 
        </Neuron>
        <Neuron NSynapses="1">
          6.2028096550393708e-01 
        </Neuron>
        <Neuron NSynapses="1">
          -5.7273232864863366e-01 
        </Neuron>
        <Neuron NSynapses="1">
          -3.1962953611377531e-01 
        </Neuron>
        <Neuron NSynapses="1">
          3.0355651486253554e-01 
        </Neuron>
        <Neuron NSynapses="1">
          9.6666514869877551e-01 
        </Neuron>
        <Neuron NSynapses="1">
          3.2940506659114582e-01 
        </Neuron>
        <Neuron NSynapses="1">
          -3.7525700762375219e-01 
        </Neuron>
        <Neuron NSynapses="1">
          3.1842919351221960e-01 
        </Neuron>
        <Neuron NSynapses="1">
          -6.5042855112027831e-01 
        </Neuron>
        <Neuron NSynapses="1">
          -2.7778615467273665e-01 
        </Neuron>
        <Neuron NSynapses="1">
          -3.6155934478867613e-01 
        </Neuron>
        <Neuron NSynapses="1">
          -3.7391908774309385e-01 
        </Neuron>
        <Neuron NSynapses="1">
          -2.0496559873033221e-01 
        </Neuron>
        <Neuron NSynapses="1">
          -6.1282763177907773e-01 
        </Neuron>
        <Neuron NSynapses="1">
          -4.4514342616224967e-01 
        </Neuron>
        <Neuron NSynapses="1">
          -3.6262409926246286e-01 
        </Neuron>
        <Neuron NSynapses="1">
          -5.6591768688806166e-01 
        </Neuron>
        <Neuron NSynapses="1">
          -2.7050610466629327e-01 
        </Neuron>
        <Neuron NSynapses="1">
          1.0606895812551738e+00 
        </Neuron>
        <Neuron NSynapses="1">
          -6.9747322083021424e-01 
        </Neuron>
        <Neuron NSynapses="1">
          -1.1542357351459711e+00 
        </Neuron>
        <Neuron NSynapses="1">
          6.4269147542450034e-01 
        </Neuron>
        <Neuron NSynapses="1">
          4.6139068405507949e-01 
        </Neuron>
        <Neuron NSynapses="1">
          1.7655092100177061e+00 
        </Neuron>
      </Layer>
      <Layer Index="3" NNeurons="1">
        <Neuron NSynapses="0"/>
      </Layer>
    </Layout>
  </Weights>
</MethodSetup>
