<?xml version="1.0"?>
<!--
    (c) Copyright 2000-2018 CERN for the benefit of the LHCb Collaboration

    This software is distributed under the terms of the GNU General Public
    Licence version 3 (GPL Version 3), copied verbatim in the file "COPYING".

    In applying this licence, CERN does not waive the privileges and immunities
    granted to it by virtue of its status as an Intergovernmental Organization
    or submit itself to any jurisdiction.
-->
<MethodSetup Method="MLP::Proton_Upstream_TMVA">
  <GeneralInfo>
    <Info name="TMVA Release" value="4.2.1 [262657]"/>
    <Info name="ROOT Release" value="6.12/06 [396294]"/>
    <Info name="Creator" value="jonesc"/>
    <Info name="Date" value="Sat Jun 23 13:07:18 2018"/>
    <Info name="Host" value="Linux lcgapp-slc6-x86-64-2.cern.ch 2.6.32-696.18.7.el6.x86_64 #1 SMP Thu Jan 4 13:27:39 CET 2018 x86_64 x86_64 x86_64 GNU/Linux"/>
    <Info name="Dir" value="/var/pcfst/r01/lhcb/jonesc/ANNPID/results/UpgradeSim09cUp02RecoUp01/TrainMixture/TrainPhysTks-EvalPhysTks-NoReweight/GhostAccFrac0.1/PrAccF1.0/KaAccF0.1/PiAccF1.0/TMVA-Upgrade-Sim09cUp02RecoUp01/MLP/Norm/L1SF1.6/L2SF1.6/BP/NCycles750/CE/sigmoid/CVTest15/CVImp1e-16/NotUseRegulator/Proton/Upstream"/>
    <Info name="Training events" value="1879720"/>
    <Info name="TrainingTime" value="7.59920260e+04"/>
    <Info name="AnalysisType" value="Classification"/>
  </GeneralInfo>
  <Options>
    <Option name="NCycles" modified="Yes">750</Option>
    <Option name="HiddenLayers" modified="Yes">30,30</Option>
    <Option name="NeuronType" modified="Yes">sigmoid</Option>
    <Option name="RandomSeed" modified="No">1</Option>
    <Option name="EstimatorType" modified="Yes">CE</Option>
    <Option name="NeuronInputType" modified="No">sum</Option>
    <Option name="V" modified="Yes">True</Option>
    <Option name="VerbosityLevel" modified="No">Verbose</Option>
    <Option name="VarTransform" modified="Yes">Norm</Option>
    <Option name="H" modified="Yes">True</Option>
    <Option name="CreateMVAPdfs" modified="No">False</Option>
    <Option name="IgnoreNegWeightsInTraining" modified="No">False</Option>
    <Option name="TrainingMethod" modified="Yes">BP</Option>
    <Option name="LearningRate" modified="No">2.000000e-02</Option>
    <Option name="DecayRate" modified="No">1.000000e-02</Option>
    <Option name="TestRate" modified="No">10</Option>
    <Option name="EpochMonitoring" modified="Yes">True</Option>
    <Option name="Sampling" modified="No">1.000000e+00</Option>
    <Option name="SamplingEpoch" modified="No">1.000000e+00</Option>
    <Option name="SamplingImportance" modified="No">1.000000e+00</Option>
    <Option name="SamplingTraining" modified="No">True</Option>
    <Option name="SamplingTesting" modified="No">False</Option>
    <Option name="ResetStep" modified="No">50</Option>
    <Option name="Tau" modified="No">3.000000e+00</Option>
    <Option name="BPMode" modified="No">sequential</Option>
    <Option name="BatchSize" modified="No">-1</Option>
    <Option name="ConvergenceImprove" modified="Yes">1.000000e-16</Option>
    <Option name="ConvergenceTests" modified="Yes">15</Option>
    <Option name="UseRegulator" modified="Yes">False</Option>
    <Option name="UpdateLimit" modified="No">10000</Option>
    <Option name="CalculateErrors" modified="No">False</Option>
    <Option name="WeightRange" modified="No">1.000000e+00</Option>
  </Options>
  <Variables NVar="19">
    <Variable VarIndex="0" Expression="TrackP" Label="TrackP" Title="TrackP" Unit="" Internal="TrackP" Type="F" Min="2.77750000e+02" Max="4.99709650e+06"/>
    <Variable VarIndex="1" Expression="TrackPt" Label="TrackPt" Title="TrackPt" Unit="" Internal="TrackPt" Type="F" Min="2.11332626e+01" Max="9.58597438e+05"/>
    <Variable VarIndex="2" Expression="TrackChi2PerDof" Label="TrackChi2PerDof" Title="TrackChi2PerDof" Unit="" Internal="TrackChi2PerDof" Type="F" Min="1.89614329e-05" Max="2.99980617e+00"/>
    <Variable VarIndex="3" Expression="TrackNumDof" Label="TrackNumDof" Title="TrackNumDof" Unit="" Internal="TrackNumDof" Type="I" Min="2.00000000e+00" Max="4.30000000e+01"/>
    <Variable VarIndex="4" Expression="TrackGhostProbability" Label="TrackGhostProbability" Title="TrackGhostProbability" Unit="" Internal="TrackGhostProbability" Type="F" Min="4.76181507e-04" Max="9.99983251e-01"/>
    <Variable VarIndex="5" Expression="TrackFitVeloChi2" Label="TrackFitVeloChi2" Title="TrackFitVeloChi2" Unit="" Internal="TrackFitVeloChi2" Type="F" Min="1.37435993e-10" Max="9.65581436e+01"/>
    <Variable VarIndex="6" Expression="TrackFitVeloNDoF" Label="TrackFitVeloNDoF" Title="TrackFitVeloNDoF" Unit="" Internal="TrackFitVeloNDoF" Type="I" Min="-1.00000000e+00" Max="3.70000000e+01"/>
    <Variable VarIndex="7" Expression="RichUsedR1Gas" Label="RichUsedR1Gas" Title="RichUsedR1Gas" Unit="" Internal="RichUsedR1Gas" Type="I" Min="0.00000000e+00" Max="1.00000000e+00"/>
    <Variable VarIndex="8" Expression="RichAbovePiThres" Label="RichAbovePiThres" Title="RichAbovePiThres" Unit="" Internal="RichAbovePiThres" Type="I" Min="0.00000000e+00" Max="1.00000000e+00"/>
    <Variable VarIndex="9" Expression="RichAboveKaThres" Label="RichAboveKaThres" Title="RichAboveKaThres" Unit="" Internal="RichAboveKaThres" Type="I" Min="0.00000000e+00" Max="1.00000000e+00"/>
    <Variable VarIndex="10" Expression="RichAbovePrThres" Label="RichAbovePrThres" Title="RichAbovePrThres" Unit="" Internal="RichAbovePrThres" Type="I" Min="0.00000000e+00" Max="1.00000000e+00"/>
    <Variable VarIndex="11" Expression="RichDLLe" Label="RichDLLe" Title="RichDLLe" Unit="" Internal="RichDLLe" Type="F" Min="-9.99000000e+02" Max="1.01566399e+02"/>
    <Variable VarIndex="12" Expression="RichDLLmu" Label="RichDLLmu" Title="RichDLLmu" Unit="" Internal="RichDLLmu" Type="F" Min="-9.99000000e+02" Max="6.60765991e+01"/>
    <Variable VarIndex="13" Expression="RichDLLk" Label="RichDLLk" Title="RichDLLk" Unit="" Internal="RichDLLk" Type="F" Min="-9.99000000e+02" Max="8.08061981e+01"/>
    <Variable VarIndex="14" Expression="RichDLLp" Label="RichDLLp" Title="RichDLLp" Unit="" Internal="RichDLLp" Type="F" Min="-9.99000000e+02" Max="6.64595032e+01"/>
    <Variable VarIndex="15" Expression="RichDLLd" Label="RichDLLd" Title="RichDLLd" Unit="" Internal="RichDLLd" Type="F" Min="-9.99000000e+02" Max="7.13443985e+01"/>
    <Variable VarIndex="16" Expression="RichDLLbt" Label="RichDLLbt" Title="RichDLLbt" Unit="" Internal="RichDLLbt" Type="F" Min="-9.99000000e+02" Max="4.62112007e+01"/>
    <Variable VarIndex="17" Expression="InAccBrem" Label="InAccBrem" Title="InAccBrem" Unit="" Internal="InAccBrem" Type="I" Min="0.00000000e+00" Max="1.00000000e+00"/>
    <Variable VarIndex="18" Expression="BremPIDe" Label="BremPIDe" Title="BremPIDe" Unit="" Internal="BremPIDe" Type="F" Min="-9.99000000e+02" Max="4.79148388e+00"/>
  </Variables>
  <Spectators NSpec="0"/>
  <Classes NClass="2">
    <Class Name="Signal" Index="0"/>
    <Class Name="Background" Index="1"/>
  </Classes>
  <Transformations NTransformations="1">
    <Transform Name="Normalize">
      <Selection>
        <Input NInputs="19">
          <Input Type="Variable" Label="TrackP" Expression="TrackP"/>
          <Input Type="Variable" Label="TrackPt" Expression="TrackPt"/>
          <Input Type="Variable" Label="TrackChi2PerDof" Expression="TrackChi2PerDof"/>
          <Input Type="Variable" Label="TrackNumDof" Expression="TrackNumDof"/>
          <Input Type="Variable" Label="TrackGhostProbability" Expression="TrackGhostProbability"/>
          <Input Type="Variable" Label="TrackFitVeloChi2" Expression="TrackFitVeloChi2"/>
          <Input Type="Variable" Label="TrackFitVeloNDoF" Expression="TrackFitVeloNDoF"/>
          <Input Type="Variable" Label="RichUsedR1Gas" Expression="RichUsedR1Gas"/>
          <Input Type="Variable" Label="RichAbovePiThres" Expression="RichAbovePiThres"/>
          <Input Type="Variable" Label="RichAboveKaThres" Expression="RichAboveKaThres"/>
          <Input Type="Variable" Label="RichAbovePrThres" Expression="RichAbovePrThres"/>
          <Input Type="Variable" Label="RichDLLe" Expression="RichDLLe"/>
          <Input Type="Variable" Label="RichDLLmu" Expression="RichDLLmu"/>
          <Input Type="Variable" Label="RichDLLk" Expression="RichDLLk"/>
          <Input Type="Variable" Label="RichDLLp" Expression="RichDLLp"/>
          <Input Type="Variable" Label="RichDLLd" Expression="RichDLLd"/>
          <Input Type="Variable" Label="RichDLLbt" Expression="RichDLLbt"/>
          <Input Type="Variable" Label="InAccBrem" Expression="InAccBrem"/>
          <Input Type="Variable" Label="BremPIDe" Expression="BremPIDe"/>
        </Input>
        <Output NOutputs="19">
          <Output Type="Variable" Label="TrackP" Expression="TrackP"/>
          <Output Type="Variable" Label="TrackPt" Expression="TrackPt"/>
          <Output Type="Variable" Label="TrackChi2PerDof" Expression="TrackChi2PerDof"/>
          <Output Type="Variable" Label="TrackNumDof" Expression="TrackNumDof"/>
          <Output Type="Variable" Label="TrackGhostProbability" Expression="TrackGhostProbability"/>
          <Output Type="Variable" Label="TrackFitVeloChi2" Expression="TrackFitVeloChi2"/>
          <Output Type="Variable" Label="TrackFitVeloNDoF" Expression="TrackFitVeloNDoF"/>
          <Output Type="Variable" Label="RichUsedR1Gas" Expression="RichUsedR1Gas"/>
          <Output Type="Variable" Label="RichAbovePiThres" Expression="RichAbovePiThres"/>
          <Output Type="Variable" Label="RichAboveKaThres" Expression="RichAboveKaThres"/>
          <Output Type="Variable" Label="RichAbovePrThres" Expression="RichAbovePrThres"/>
          <Output Type="Variable" Label="RichDLLe" Expression="RichDLLe"/>
          <Output Type="Variable" Label="RichDLLmu" Expression="RichDLLmu"/>
          <Output Type="Variable" Label="RichDLLk" Expression="RichDLLk"/>
          <Output Type="Variable" Label="RichDLLp" Expression="RichDLLp"/>
          <Output Type="Variable" Label="RichDLLd" Expression="RichDLLd"/>
          <Output Type="Variable" Label="RichDLLbt" Expression="RichDLLbt"/>
          <Output Type="Variable" Label="InAccBrem" Expression="InAccBrem"/>
          <Output Type="Variable" Label="BremPIDe" Expression="BremPIDe"/>
        </Output>
      </Selection>
      <Class ClassIndex="0">
        <Ranges>
          <Range Index="0" Min="3.6830999755859375e+02" Max="4.9011740000000000e+06"/>
          <Range Index="1" Min="3.4385650634765625e+01" Max="6.2531575000000000e+05"/>
          <Range Index="2" Min="9.8009058274328709e-04" Max="2.9990718364715576e+00"/>
          <Range Index="3" Min="2.0000000000000000e+00" Max="4.1000000000000000e+01"/>
          <Range Index="4" Min="8.5163116455078125e-04" Max="9.9959123134613037e-01"/>
          <Range Index="5" Min="4.8787772044533995e-08" Max="9.6558143615722656e+01"/>
          <Range Index="6" Min="-1.0000000000000000e+00" Max="3.7000000000000000e+01"/>
          <Range Index="7" Min="0.0000000000000000e+00" Max="1.0000000000000000e+00"/>
          <Range Index="8" Min="0.0000000000000000e+00" Max="1.0000000000000000e+00"/>
          <Range Index="9" Min="0.0000000000000000e+00" Max="1.0000000000000000e+00"/>
          <Range Index="10" Min="0.0000000000000000e+00" Max="1.0000000000000000e+00"/>
          <Range Index="11" Min="-9.9900000000000000e+02" Max="2.9803499221801758e+01"/>
          <Range Index="12" Min="-9.9900000000000000e+02" Max="2.1082799911499023e+01"/>
          <Range Index="13" Min="-9.9900000000000000e+02" Max="4.2807300567626953e+01"/>
          <Range Index="14" Min="-9.9900000000000000e+02" Max="5.4498401641845703e+01"/>
          <Range Index="15" Min="-9.9900000000000000e+02" Max="4.5172698974609375e+01"/>
          <Range Index="16" Min="-9.9900000000000000e+02" Max="4.6211200714111328e+01"/>
          <Range Index="17" Min="0.0000000000000000e+00" Max="1.0000000000000000e+00"/>
          <Range Index="18" Min="-9.9900000000000000e+02" Max="4.7914838790893555e+00"/>
        </Ranges>
      </Class>
      <Class ClassIndex="1">
        <Ranges>
          <Range Index="0" Min="2.7775000000000000e+02" Max="4.9970965000000000e+06"/>
          <Range Index="1" Min="2.1133262634277344e+01" Max="9.5859743750000000e+05"/>
          <Range Index="2" Min="1.8961432942887768e-05" Max="2.9998061656951904e+00"/>
          <Range Index="3" Min="2.0000000000000000e+00" Max="4.3000000000000000e+01"/>
          <Range Index="4" Min="4.7618150711059570e-04" Max="9.9998325109481812e-01"/>
          <Range Index="5" Min="1.3743599314164356e-10" Max="9.5044601440429688e+01"/>
          <Range Index="6" Min="-1.0000000000000000e+00" Max="3.7000000000000000e+01"/>
          <Range Index="7" Min="0.0000000000000000e+00" Max="1.0000000000000000e+00"/>
          <Range Index="8" Min="0.0000000000000000e+00" Max="1.0000000000000000e+00"/>
          <Range Index="9" Min="0.0000000000000000e+00" Max="1.0000000000000000e+00"/>
          <Range Index="10" Min="0.0000000000000000e+00" Max="1.0000000000000000e+00"/>
          <Range Index="11" Min="-9.9900000000000000e+02" Max="1.0156639862060547e+02"/>
          <Range Index="12" Min="-9.9900000000000000e+02" Max="6.6076599121093750e+01"/>
          <Range Index="13" Min="-9.9900000000000000e+02" Max="8.0806198120117188e+01"/>
          <Range Index="14" Min="-9.9900000000000000e+02" Max="6.6459503173828125e+01"/>
          <Range Index="15" Min="-9.9900000000000000e+02" Max="7.1344398498535156e+01"/>
          <Range Index="16" Min="-9.9900000000000000e+02" Max="4.5655300140380859e+01"/>
          <Range Index="17" Min="0.0000000000000000e+00" Max="1.0000000000000000e+00"/>
          <Range Index="18" Min="-9.9900000000000000e+02" Max="4.7914838790893555e+00"/>
        </Ranges>
      </Class>
      <Class ClassIndex="2">
        <Ranges>
          <Range Index="0" Min="2.7775000000000000e+02" Max="4.9970965000000000e+06"/>
          <Range Index="1" Min="2.1133262634277344e+01" Max="9.5859743750000000e+05"/>
          <Range Index="2" Min="1.8961432942887768e-05" Max="2.9998061656951904e+00"/>
          <Range Index="3" Min="2.0000000000000000e+00" Max="4.3000000000000000e+01"/>
          <Range Index="4" Min="4.7618150711059570e-04" Max="9.9998325109481812e-01"/>
          <Range Index="5" Min="1.3743599314164356e-10" Max="9.6558143615722656e+01"/>
          <Range Index="6" Min="-1.0000000000000000e+00" Max="3.7000000000000000e+01"/>
          <Range Index="7" Min="0.0000000000000000e+00" Max="1.0000000000000000e+00"/>
          <Range Index="8" Min="0.0000000000000000e+00" Max="1.0000000000000000e+00"/>
          <Range Index="9" Min="0.0000000000000000e+00" Max="1.0000000000000000e+00"/>
          <Range Index="10" Min="0.0000000000000000e+00" Max="1.0000000000000000e+00"/>
          <Range Index="11" Min="-9.9900000000000000e+02" Max="1.0156639862060547e+02"/>
          <Range Index="12" Min="-9.9900000000000000e+02" Max="6.6076599121093750e+01"/>
          <Range Index="13" Min="-9.9900000000000000e+02" Max="8.0806198120117188e+01"/>
          <Range Index="14" Min="-9.9900000000000000e+02" Max="6.6459503173828125e+01"/>
          <Range Index="15" Min="-9.9900000000000000e+02" Max="7.1344398498535156e+01"/>
          <Range Index="16" Min="-9.9900000000000000e+02" Max="4.6211200714111328e+01"/>
          <Range Index="17" Min="0.0000000000000000e+00" Max="1.0000000000000000e+00"/>
          <Range Index="18" Min="-9.9900000000000000e+02" Max="4.7914838790893555e+00"/>
        </Ranges>
      </Class>
    </Transform>
  </Transformations>
  <MVAPdfs/>
  <Weights>
    <Layout NLayers="4">
      <Layer Index="0" NNeurons="20">
        <Neuron NSynapses="30">
          -4.4873785062765164e+00 4.5447598342202149e+01 2.1270393384867501e+00 9.1145675022483772e+00 -4.4664177478366085e+00 -7.8379126069321270e+00 -4.9063426754478003e+00 2.6691775150053916e+00 -9.8973261066777485e-01 -1.5088102607777166e+01 -1.1053935009477176e+00 -5.3973136171063407e-01 -9.8072913147439742e+00 -3.5164436590968737e+00 -7.4255254673438731e-01 1.1643379163738929e+00 2.8114759572966341e-01 2.9833224997477124e+00 -5.3893927727972957e-01 2.7760635941629836e+01 -6.4894818352946935e+00 2.0687054828330047e+00 4.1784328915877911e-01 -4.2069011599124601e-02 -6.1076218205535131e+00 1.4512449382061707e-01 6.4812074527676355e-01 -3.8976246870239761e-01 3.0612592185306613e+00 4.5023815365240788e-01 
        </Neuron>
        <Neuron NSynapses="30">
          -1.6471106924963765e+00 2.7004232757920090e+00 9.7087919898509822e-01 5.0973154049596268e+00 -6.6281314214657678e+00 -2.0070659083340785e+00 -7.1217449362424530e+00 2.0103451068126188e+00 -7.9616715789386239e-01 8.7950805017830902e+00 3.0376046727110961e+00 5.4156062403335425e-01 -4.6896480734896206e+00 2.1614250968995634e+00 -1.0861421454822004e+00 -1.2938441247991515e+00 -2.0052682356449681e-02 2.8506335675452505e+00 8.0915537194709208e-01 3.4526621578133470e+00 1.3971035670045495e+00 3.9598690937085612e+00 -3.1267212038031937e+00 2.2292717068874426e+00 3.4835641888860214e-01 -6.3658713098094544e-01 1.4794292593590159e+00 -1.0865509883212077e-01 5.1930217383363297e+00 7.7099271813130876e-01 
        </Neuron>
        <Neuron NSynapses="30">
          -7.7348313673262975e-02 -5.8945692945526007e-01 -3.3023870756096335e-01 1.9273480712812676e+00 4.7215599832266480e-01 -4.0581602665582961e-01 7.0907807544201495e-01 -1.0595285738411184e+00 9.3715540104835882e-01 2.7260508343577339e-01 -5.1265525633787334e-01 -3.2193347193350799e+00 -2.0871083080105574e-01 1.1786343852835754e+00 1.6527436779318763e+00 -4.3850403267194682e-01 1.9020173626329817e-01 -7.4266524002883971e-01 3.1425942370195732e+00 4.7086746031537718e-01 -4.4733366157347665e-01 -7.2738163864431515e-01 3.3444768495619814e-01 -6.4725098172432283e-01 -4.0486500412345089e-01 -5.6253339276649306e-01 -1.6247199470245285e-01 3.7975886014090019e+00 -2.6221586020424397e+00 -1.8297252761664557e+00 
        </Neuron>
        <Neuron NSynapses="30">
          1.9774143178495034e+00 2.7292327571288844e-01 5.3919432832337147e-02 -5.4915449211547358e+00 -3.6409347756828097e+00 6.7418828547566081e+00 1.3000598887979959e+00 -1.1636811487626590e+00 -1.3808480804417278e+00 -3.9348382016226267e+00 1.3814416602628634e+00 -1.4079309781684519e+00 -5.7201638725191879e+00 7.8372584393831823e-01 -1.5128263685041112e+00 1.6245428300512712e+00 -1.1531202767888744e+00 -3.6678313155109227e-01 -2.2265200980526858e+00 3.4962335352039808e-01 -7.0915546366686124e+00 -7.9061670299508382e+00 3.9905258316972638e+00 9.1137931523737290e+00 -1.8526938300606044e+00 1.4305015384242767e+00 3.2839982150580567e+00 -2.4031004109178871e+00 2.3937422837693036e+00 -1.0331742724635291e+00 
        </Neuron>
        <Neuron NSynapses="30">
          -5.3513778508549348e-01 3.8105592848113046e-02 1.9235652868424313e+00 -1.9866555858603399e+00 2.2843000390684459e-02 7.6856063118497775e-01 -9.9204217647759951e-01 7.0835905140355682e-01 -1.8059084728752426e+00 -3.7892243525899050e-01 4.9247106269497476e-01 2.8297244551829972e+00 2.2817252216929809e-01 2.1280410845957265e+00 1.1864213645574959e+00 1.3332248998392908e+00 5.0145984666640206e+00 -2.0746734028321207e+01 -9.7254140134946643e-01 1.8800342116932228e-01 6.8583781679220683e+00 2.2782959436512966e+00 -3.2325662910638764e+00 5.9548110360393225e-01 -4.8401764084956911e-01 2.1047781465127886e+00 5.4784063450577947e-01 -1.3579376918955868e+01 -4.2675855247596689e-01 -8.1180696507967803e-02 
        </Neuron>
        <Neuron NSynapses="30">
          -7.2811131117211614e-01 1.0549777751156126e+00 2.0401957382907789e+00 -7.0420818023714471e+00 -1.0816777867283642e+00 1.4440925663645159e+00 -2.3918564296751637e+00 9.4517542439406765e-01 1.2295029787081793e+00 -1.5083387988356323e+00 3.3546140996755227e+00 1.1614153684293118e+00 1.4697665262827636e-01 1.3324275857939467e+00 -8.2048950666053135e-03 -5.0982931514955576e-01 3.5844205643697485e-01 -2.2575898489360657e-01 -3.0817183424535433e+00 -5.5693262666924004e-01 4.7012543869053687e+00 3.9308064666388001e+00 -2.1284292252145631e+00 1.8176981880995144e+00 1.3460042463744402e+00 -3.9111896040187983e+00 1.1720373862606939e+00 -8.2552332719039558e+00 7.7569800814725576e-01 -1.5675813138231525e+00 
        </Neuron>
        <Neuron NSynapses="30">
          -2.7378448048231174e+00 2.8716753125296557e-01 6.7928774285340365e-01 7.3131345511411139e+00 3.0729520911432289e+00 -6.7618066230732055e+00 1.0996223906869709e+00 2.1801194072896410e+00 -2.9947908282759389e-01 4.4201142700632197e+00 -3.1523388767311382e+00 5.2436249267443982e+00 6.2990086312537708e+00 2.3871370822034121e-01 -1.4565529306364991e-01 -8.0453985253262161e-01 -7.5234163527924891e-01 -1.7137533923792490e+00 1.3719563957778000e+00 -1.3703057121293969e+00 5.6325566488285919e+00 6.0317641488585645e+00 -4.8419534913658174e-01 -8.6188079551106185e+00 1.8380042878495118e+00 4.0968830737392659e-01 -3.6596079627966733e+00 2.4653725853911990e+00 4.6478482454457443e-01 9.7324688757192424e-01 
        </Neuron>
        <Neuron NSynapses="30">
          -9.9176990302875134e-01 -4.4006415030713795e+00 -1.6053523970820165e+00 3.8708643831417393e+00 1.0714002239512663e+01 -1.4344839325224892e+00 1.1253674950251714e+01 6.3644307703097946e-01 2.0625462619000050e+00 -2.4851242106774102e+01 -7.5227701314003443e+00 -9.6844056648733423e-01 4.5836498345640386e+00 6.5577876624626719e-01 1.3805044206843593e+00 -1.4642707709520322e+00 1.5208340976096499e+00 -3.7616485944608385e-01 -1.0412975784928491e+00 -3.6248558671669748e+00 1.6594806437188774e+00 2.3956167028190936e+00 -6.1894858408201492e-01 -6.6991898705921855e+00 8.9073358106629918e-01 -2.0002967011956487e+00 -1.8222684287679829e+01 3.5991558153152425e-01 -6.5365174822919121e+00 -1.0199943819974446e+00 
        </Neuron>
        <Neuron NSynapses="30">
          -3.3365037697897981e+00 -4.6523909662866219e+00 -1.0630549303080108e+00 -2.3938171759053097e+00 8.2805967679623071e-01 5.7212917677469932e-01 9.3851943550120609e+00 -1.3015495367221674e+00 1.9555103845920114e+00 -2.4479139722679584e+01 -3.3217562109112980e-01 -4.2817995945684775e+00 -7.6167315549974102e-01 1.5693312124732843e+00 6.8728354838807837e-01 -9.4465956385746364e-01 -6.7000413832592143e+00 -8.4048311201274750e-01 2.5872959960168929e-01 -4.0295073055669404e+00 4.3398915478133553e+00 2.5657551390501943e+00 9.5185925853105779e-01 -8.9977368980157324e-01 9.0052053521926145e-01 -2.0907941779440886e+00 -2.0957804904514436e+01 3.4577881095444640e+00 3.6616097904621381e-01 1.4958774767221303e-01 
        </Neuron>
        <Neuron NSynapses="30">
          -4.0378125480359985e+00 -3.3427810021767548e+00 2.0632409602582409e+00 2.9788348389793113e+00 2.4476678213138348e-01 2.2710658954213891e-01 -6.8127225571947655e-02 1.3266585345319333e+00 1.4316957009365914e+00 -3.0930325975634959e-01 1.5666269721418544e-01 -2.1349036165623976e+00 3.9891803861397096e-01 -8.4150601156595861e-01 -2.2771159538941390e+00 -1.0750754822638104e+00 -1.1427480620202601e+00 2.3681505888942574e-02 -5.2390094477635101e+00 -7.1403333871929886e-01 -5.0063009496795754e+00 1.7669316235265597e+00 -9.3955002429330958e-01 4.3544085275334421e-01 -4.0355477665553835e-01 -3.0772653779233945e+00 -2.2641664291225244e-01 -2.2042840009236802e+00 3.6578639404655300e-01 -3.3642019342426059e+00 
        </Neuron>
        <Neuron NSynapses="30">
          -1.9095199711403383e+00 -5.0418023614805731e+00 2.7527450825998980e+00 1.9150579153070252e-02 -4.9536770991396623e-01 -5.6088563792058080e-02 8.0934555394059318e-02 -1.1510866924340035e+00 -5.6317184484911642e-01 1.6797570537076846e-02 -3.4374738475593319e-01 -1.0815147101015712e+00 -6.8511416031360159e+00 1.5436335365624205e+00 1.7600797459888395e+00 -2.0763842371594993e-01 3.9380472825271906e-01 -2.0065368105580972e-01 1.6880194333001144e-01 -1.2295968565275908e+00 -8.5710132095651392e-01 1.0261045371350326e-01 -5.3531557553871789e-01 -2.3151339264298709e-01 1.2068430368735181e+00 9.6075662544147222e-01 -7.8634457611972991e-02 -1.1422756988034106e+00 -5.3219383535901377e-01 4.1960936677492133e-01 
        </Neuron>
        <Neuron NSynapses="30">
          -2.0754115360923273e+00 -3.6150253860038379e+00 -1.9402625886745402e+00 -1.4951192958659989e+01 -2.4174600123143083e+01 1.6244838559003611e+01 -1.9634079571073173e+01 1.4133346523648791e+00 3.7869916079778027e-01 3.3456858765302002e+01 1.0639263691648303e+01 2.2905308864210667e+00 2.6812790565231999e+00 -1.7691060106070138e+00 -5.3504615666630750e-01 -1.6070553110140682e+00 -6.2067767775000511e-02 -1.3635940878464183e+01 2.7158900036241476e+00 -3.4898588751062563e+00 1.1338624906828516e+00 -5.4670391943481178e+00 7.6514991479485739e-01 -1.9981679208045801e+01 -9.1039150555329336e+00 -3.7485533264612894e+00 4.5174941006681649e+01 -1.2824966361393175e+01 7.7708148292596526e+00 -6.4781307243101449e-01 
        </Neuron>
        <Neuron NSynapses="30">
          -3.0548066469036622e-01 -5.9409186126093809e+00 -1.0362305006030275e+00 -9.1290002425011156e+00 1.6191069580217277e+01 -2.1050212242002242e-01 -5.1085874223266812e+00 -1.6055236405874038e-01 -8.3392417747261038e-01 -3.4187796423091442e+01 -3.1072690547590426e+01 2.2654991011008323e+00 3.9998213391928679e+00 1.5017261081903504e+00 4.8808692734133430e-01 9.4070118328767355e-02 1.4487576999296508e+00 7.7245514220288012e+00 3.7475978954304989e+00 -1.9354742432644652e+00 1.0165157210178133e+00 -1.4210998261280205e+00 -3.5963197129827611e+00 -8.1531010583143537e+00 9.2899099075345219e+00 -2.5734055435307006e+00 1.4226757557206509e+01 1.9909085063241532e+00 2.2633051470748144e+00 -1.4859233052925971e+00 
        </Neuron>
        <Neuron NSynapses="30">
          -1.2858129846356299e+00 -3.4791449561872816e+00 -2.2369670992688007e+00 5.6812385220431416e+00 -1.7225640125186015e+01 7.8463320258130258e+00 -1.2623857279817766e+01 1.4324390212631091e+00 1.8924944673091646e+00 2.8395348504108711e+01 2.4128654216767664e+01 4.3044579200238087e-01 -8.3866950415642538e+00 -1.4896210614097221e+00 1.2369223440019532e+00 -2.1320426886718327e+00 -8.3470005931580704e-01 -7.1022933202011647e+00 -2.9620405355723949e+00 -3.0804455125337369e+00 -1.7838605697892795e+00 -4.3434230596500871e+00 4.8080300550431498e-01 -1.1262064797162322e+01 -2.8321258160336464e+00 -5.1258067401616127e-02 3.5555309976273740e+01 -4.7344446520652950e+00 8.6787500240532705e+00 -2.9548916396291752e-01 
        </Neuron>
        <Neuron NSynapses="30">
          4.2345377641581755e-01 -3.7988275347830704e+00 1.1722280768604039e+00 -7.2349147893197108e-01 -8.1148568280493016e+00 -3.3830740545319387e+00 -8.8124728335870088e+00 -1.2299095007539451e+00 -1.3673717936307281e+00 2.4790421433198144e+01 9.6192675750862406e+00 -3.2454510968000010e+00 -1.2762313832196698e+01 -5.8262540784115568e-01 1.4754517700606107e+00 1.6750338090493408e+00 -1.6558970564427378e-01 -2.5415859310878717e+00 -4.6571511516021316e+00 -2.3358483712985287e+00 -2.8113317863079499e+00 -3.6299646122260216e+00 5.9386948753407796e-02 1.7122191327666485e+01 -3.8521913269313962e-01 1.7263253420214821e+00 1.9605076641928115e+01 -3.1345767993728941e+00 4.3775861571366708e+00 -7.7359452563839715e-01 
        </Neuron>
        <Neuron NSynapses="30">
          2.8378837733272242e+00 -4.8148902952641466e+00 1.2885899252135817e+00 6.6302168959906931e+00 -2.4929784983347233e-01 -1.0601789885282670e+01 -1.3783104590575468e+00 -1.4484130433908082e+00 1.7154501638299517e+00 5.7273835530476696e+00 1.4743839232400267e+00 -1.5714298994299489e+00 -1.0636306804374657e+01 -7.9836369372408733e-01 9.0171878848473908e-01 1.3860384007637108e-01 -1.7160105454186563e+00 -2.3099105987530568e+00 -2.3782754207385750e+00 -4.3577384859355278e-01 -5.8840605249343314e-01 3.5348248741505950e+00 -2.2459533545528640e+00 1.6797122367001272e+01 9.4115315890491325e-01 -9.0459545407989539e-01 -1.3448267665137232e+00 -3.4228028748725579e+00 4.5400101760401217e+00 1.6913680762607963e+00 
        </Neuron>
        <Neuron NSynapses="30">
          1.3068915899198994e+00 -5.2978687053698632e+00 2.3712238422645231e+00 4.6355107945934053e+00 -7.0735066113599894e+00 -9.1765335589398624e+00 -6.0881206062545781e+00 -7.7535206295554626e-01 1.2371952635818544e+00 2.1192057798793417e+01 6.5070387029967982e+00 -3.1299856487797189e+00 -1.2724032688795271e+01 -2.3998001248011165e+00 -8.3636994736723558e-01 -1.9803091330786979e+00 -7.0383068952481831e-01 -2.9476319934782143e+00 -4.8179993047728342e-01 -1.9570874446294892e+00 -3.3257865122805312e+00 5.3278985331221360e+00 2.1373112072362801e+00 2.1267998161774376e+01 -9.4707168754445170e-01 -7.9212159261510195e-01 2.6208206390833499e+00 -5.2667263923189802e+00 4.1394774845840390e+00 -1.3474509354588418e+00 
        </Neuron>
        <Neuron NSynapses="30">
          1.9308435627295091e+00 -3.5207764725239349e-01 1.4349866035271992e+00 5.6483099321465557e-01 -1.0184347919781608e-01 3.5813724334699920e-01 -5.7339365469796899e-01 9.1687086993377465e-01 1.4260374335075357e-01 1.7782398516637601e-01 5.3790489955526333e-01 -1.2518852388941593e+00 2.0358366866456241e+00 -6.0613305216798008e-01 1.3722248664211454e+00 1.3492360599212214e+00 5.9862775938647091e-03 1.2524530029987366e+00 5.1806966780020880e-01 -2.9566728173408574e+00 -1.7310357801072687e+00 -7.5736812027562006e-01 2.1468784052321062e+00 7.9666672437894867e-02 -5.2537473021840742e-01 1.6528924611997470e-01 -1.9438503470574236e+01 -6.0220322459758791e-01 -4.4442906480516404e+00 -1.9478731153972817e+00 
        </Neuron>
        <Neuron NSynapses="30">
          9.1275553530624789e-02 9.1119849731243474e-01 3.9769047004224317e-01 -5.4833414648814938e-01 -1.8444465932135495e-01 1.0545256309868347e+00 -4.8382736605441173e-01 -1.2099364877185081e+00 1.6936399890226550e+00 -4.9094015837613580e-01 -4.9472495928940707e-01 1.3300947598966839e+00 -2.6840511437882977e-02 3.4784204164138999e-01 3.5850426706149546e-02 -1.7686880514620911e+00 -1.3598901912247103e+00 -1.3196839692396529e+00 4.5636830259481853e-01 -2.8462634723674589e+00 8.4396254629649092e-01 2.1437097963941683e+00 2.9878979046596510e+00 -3.9694826359534119e-01 6.0696686214336115e-01 6.7391012358128155e-01 -1.8680539852480212e+01 -1.1294284100318963e+00 -4.9414970354885677e+00 -8.4928442516306180e-01 
        </Neuron>
        <Neuron NSynapses="30">
          -2.3269579646056962e-01 3.9018212828702841e+00 -4.9655926276289014e-01 9.5507426797076693e+00 1.0307502823994401e+01 -7.9392522191437687e+00 1.0778186045814625e+01 -2.0513544537998443e+00 5.2159303723721406e-01 -2.5214309187603547e+01 -6.0161277448823487e+00 -2.0535349322532603e-01 7.1212917332889702e+00 -3.5222446803381566e+00 7.5105295376626047e-01 -2.0518323616701561e+00 1.3083146324458088e+00 1.1577997085175447e+00 2.1965499147901038e-01 1.2002697680697796e+00 -2.0247143381551456e+00 5.9752409835005809e+00 -1.5027387984059948e+00 -4.3352504497889601e+00 -4.6388199781128741e+00 -1.1889873657475112e+00 -1.7229531744162717e+01 -1.2804417612252965e+00 -6.2936320185932244e+00 -1.0283879625872403e+00 
        </Neuron>
      </Layer>
      <Layer Index="1" NNeurons="31">
        <Neuron NSynapses="30">
          8.1388842360916680e-01 -1.3660495146693106e+00 -1.1403155305789994e+00 2.6421928576750087e-01 3.1857358308382389e+00 -7.8349690842028341e-01 1.3511754084712022e+00 -2.5608527129683107e+00 -2.6205940327625465e+00 -1.4034266562162109e-01 3.3620806562883321e-01 2.8872401316747380e+00 2.0106978485397580e+00 5.6589390624019464e-01 1.6765757553545846e+00 7.5586103195685461e-01 -1.8544106841281771e+00 3.1542198774897545e+00 -8.7046912116281505e-01 -1.9132161687945857e+00 1.8712760660339547e+00 -1.5406381096226847e+00 -9.0017744872166572e-01 -9.1374167710744592e-01 9.3999777688960928e-01 -2.8536042755538396e+00 1.2357633985569043e+00 2.8961501007766299e-01 -2.3033776529881251e+00 -2.5797767309128967e+00 
        </Neuron>
        <Neuron NSynapses="30">
          -1.8319175745742042e+00 -7.5525516568007767e-01 -6.8356585741249187e-01 -3.7977695509831051e+00 -1.4329006406261475e+00 -2.5290280040322834e-02 -6.0892113427350680e-01 7.6673631114856561e-02 1.9010448516769447e+00 -3.3660977382204811e+00 6.2821919691479500e-01 -1.4643749857535036e+00 1.0833097781965628e+00 -5.4571085919240392e-01 -1.0671779273660653e+00 -1.8645066774866321e+00 -3.8290167259726688e+00 6.0584099113007062e-01 3.4791920937181525e-01 1.1684578362116609e+00 -2.6211991887558046e+00 -1.2873385907903581e+00 -1.2688185203731617e+01 -1.2342312943840528e+00 4.2378627034684130e-01 6.6134366225504049e-01 -2.4140540297858371e+00 -1.4140993286574994e+00 4.5881827944947251e-01 3.6863601841670791e-02 
        </Neuron>
        <Neuron NSynapses="30">
          -2.0914036534632947e+00 2.2855683672776088e+00 -1.2559182635612737e-01 -1.6599273377862271e+00 -1.1399322003448786e+00 -2.0721855179236641e+00 1.4180003214513952e+00 1.2707670201042272e+00 -1.3995552524189179e+00 5.9674258885092413e-01 -1.6908873149716162e+00 -1.4739407338036588e+00 5.9199311927001376e-02 -7.2937218315349361e-01 -1.0474795462887423e+00 -2.2045353379748498e+00 8.8318321027941715e-01 -1.3995717957909122e+00 -9.9967739628383501e-01 -2.0070287245874225e+00 1.3169482563025281e+00 3.9614846641643481e-01 1.8989425390476361e-01 -4.6133763685754231e-01 2.3052041774927542e-01 -6.0548994834272674e-02 -1.9324038302756545e+00 -6.2630434326739781e-01 3.4923282859100742e-02 -1.0747902985769962e+00 
        </Neuron>
        <Neuron NSynapses="30">
          2.2223207370196265e+00 -7.2322810113223068e-01 2.8213320542041362e+00 5.8310402701063957e-01 -2.2707510954019419e-01 -1.1065202776552450e+00 4.9500192397682055e+00 1.6863697786676010e-01 -1.7918536357115160e+00 -7.4738947779377052e-01 1.0388047980999866e+00 6.5995291186509386e-01 1.7248694063744665e+00 -1.8460004083113899e+00 -5.4238524408298296e+00 -2.3202335541081869e+00 -1.2899632166543458e+00 -2.6119826673942632e+00 -1.5607889286823633e+00 1.2727300496011926e-01 -8.6983479521969065e-01 1.1904333532657814e+00 1.7999833635528779e+00 -2.8716323922792326e+00 -2.4665797253847987e+00 4.5297696583943834e+00 7.5569873678763440e+00 -1.7099819099942988e+00 2.3834967238519575e+00 1.7741367736087124e+00 
        </Neuron>
        <Neuron NSynapses="30">
          1.6279845735623932e+00 -1.1426382120955787e+00 -5.1048193827874115e+00 -5.9920652446413856e+00 -4.8878604892539981e+00 -8.2199685971199277e-01 -3.6934064747698714e+00 -9.7229892152157460e-01 1.2118536438270051e+00 2.6454477573071017e-01 6.5609989889239329e-01 -1.9186684696887149e+00 2.3083809371267425e+00 2.5136862864639746e+00 -7.3071101696627416e-01 5.3980477135197913e-01 7.3616862082077728e-01 3.5023309459020263e-01 -2.7955671195778886e+00 -7.6842698176784408e-01 -2.3658980086617816e+00 5.0433585393283731e-01 -3.7147987776612332e+00 2.7451364789566615e+00 -2.8673272429476264e+00 -3.7068032968006563e+00 4.0796706020044260e+00 -5.4175247706212371e-01 -2.0587116407966302e+00 -4.3610231693512214e+00 
        </Neuron>
        <Neuron NSynapses="30">
          -2.1106969111746081e+00 -1.3623512970374343e+00 3.3338519355525849e+00 4.4462486022184535e+00 6.6459791041777923e+00 1.2626162645569570e+00 -2.1274170419106149e+00 -3.9633071869106595e-01 3.4782985719430091e+00 7.2345281949190432e-01 -2.5637801263664821e+00 1.7103012468119411e-01 -6.1078874137517392e-01 -3.9092306610484626e+00 5.3960854413050434e+00 6.6491600640537718e-01 -1.9887873352926606e+00 -1.7986865880807894e+00 -3.8621684492852277e+00 -1.2704769045208406e+00 -3.2559060161417597e-01 1.3578618837807062e-02 7.3668785107941737e-01 6.3195691251488633e+00 3.2091194856546243e+00 -5.2375395829921647e+00 6.9802493278719557e-01 1.3935610838070402e+00 -2.2599364865959273e+00 -1.0484517376665672e+00 
        </Neuron>
        <Neuron NSynapses="30">
          2.5313858419858812e+00 5.5591240709545469e+00 -3.6364389405367956e+00 3.9155245355102508e+00 5.6494888125233156e-01 4.6329995834451624e-04 -5.5107633427170297e+00 -1.2585192657659212e+00 1.0521714113616267e+00 1.8027934873438012e-01 6.8268598122395763e-01 -2.2759175458416614e+00 -1.6704696582361105e+00 -5.5239358497075957e+00 1.3924666247954289e+00 -2.4445589740871929e+00 -1.0401370554752187e+00 -8.0095861366230170e-01 8.6693540006876812e-01 -1.4089767998689198e+00 3.1480905450465388e+00 3.3387527762355701e-01 1.6449198047623648e+00 -1.0688456858284570e+00 -2.2839560225230615e+00 -8.7650759311052751e-01 1.4415849576420654e+00 -2.2886369706504270e+00 3.3709496034907338e-01 -1.9998926112066255e+00 
        </Neuron>
        <Neuron NSynapses="30">
          1.6265820436075353e+00 -1.6602864966148456e+00 -1.1525105211589513e+00 9.4880636774260244e-02 -8.1734892689415362e-01 8.2241351275261942e-01 -1.6024544064067985e+00 -2.2307393123146060e-01 -3.4002999745040047e-01 -6.4412092610818483e-01 -1.4856516778917659e+00 1.3226132203411769e+00 4.6087022215596740e-01 -1.8010562037811984e+00 1.2740916844386250e+00 -5.4425838082359101e-01 7.4968340144252066e-01 -2.0133211111699875e-01 1.1020007485312495e+00 9.1692323874467219e-01 -6.5648615225856000e-01 1.6283015755167631e+00 1.2971493858007772e+00 -9.1129259149071362e-01 -6.1748400581189922e-01 1.3043045801371469e+00 1.1241233836474700e+00 6.8086616998715521e-01 5.0827882537931257e-01 -1.8691221854728644e+00 
        </Neuron>
        <Neuron NSynapses="30">
          -6.4548229592465889e-01 2.6357307826465703e-01 -2.3139093788309681e+00 -4.1014648110213692e-01 -2.4156561810052692e+00 -1.0288780081846464e-01 -3.7396962072254629e+00 -2.1533808222221310e-01 -5.9166893164000624e-02 -9.1485548126105132e-01 -1.9278874257024665e+00 -1.7312687328073777e+00 -1.9679061068491923e+00 -4.2794556350097301e-01 -6.7155226407848301e-01 1.1697070202992113e+00 1.0390060459854135e-01 -9.0625711298263478e-01 5.1388179235733877e-01 5.9030230943202888e-01 -1.3056632153735190e-01 5.1754045153949946e-01 -1.4841819491143329e+00 -1.4129761743364049e+00 -1.3694295679807260e+00 6.0623914205593943e-01 -1.5854798582828231e+00 -1.0797703780739585e+00 8.3438531782674252e-01 9.3724487042004812e-01 
        </Neuron>
        <Neuron NSynapses="30">
          -1.2587370964251046e+00 6.1032430096729984e+00 4.2438044775738746e+00 4.8786215652410343e+00 -6.2596296941372804e+00 4.6446310688632936e-01 4.5888052425069219e+00 -1.9064540695503449e+00 -8.8368625703272308e+00 -1.1242743159913402e+00 9.8390206434453942e-01 2.9873419034145821e+00 -8.7364158879542309e-01 8.9301011037510633e-02 4.2547765717595061e+00 -7.2871018215755798e+00 -5.9936920076547917e+00 -4.5016571161195174e+00 4.5994860126921706e+00 1.2040462343639555e+00 2.3939932125775485e+00 1.0932010877282346e-01 9.8622139407418208e-01 1.4752349582581656e+00 1.1886161377951712e+00 6.7872204305024626e+00 -7.0613528852957219e-01 -2.8302004428967031e-01 5.9987229223920533e+00 5.1067905712094639e+00 
        </Neuron>
        <Neuron NSynapses="30">
          2.7376193130851072e+00 9.2165372212906220e+00 5.9287660604935266e-01 5.5031630203430737e+00 1.7213582751770458e+00 -3.7079508898544516e-01 3.5664077592292891e+00 -1.2713917296489761e-02 9.0334996194265094e-01 2.1839791833114186e-01 -4.3724946937372389e-01 -2.9776380197574768e+00 2.2479304557522921e+00 -6.0396897826498908e+00 3.5705145341763733e-01 -4.3983613395655068e+00 -3.2721418540008367e+00 -4.3360533082717447e+00 -4.1288190633513961e+00 -6.2677807864595259e-01 -1.1108971361652134e+00 1.8818332507348837e-01 7.1268933906083132e-01 -1.3612203664260649e+00 -1.4552403938596292e+00 5.0233284162729985e+00 4.0256348588202878e-01 4.7277551491771481e+00 4.8050974241600413e+00 3.5000234832148127e+00 
        </Neuron>
        <Neuron NSynapses="30">
          -8.7514965025475777e-01 -2.4624079348082457e+00 -2.2604187716698529e+00 3.5217961848656580e+00 -1.3450643269018978e+00 5.3972480443914472e-01 -2.1891020354643227e+00 -1.3191089377780857e-01 -1.8578664009468757e+00 2.1866603162736289e+00 1.3614404692794912e+00 -1.3740119932026758e+00 -7.3524325182073935e-01 1.1051006353467183e+00 -2.8094313804063491e+00 -1.6010604918754681e-01 -6.6096678619180249e-01 -1.5588845175637873e+00 -1.4006169441909910e-01 1.0612186399014678e+00 -2.2382287972545023e+00 -9.1952771797476318e-01 6.3327184682368298e-01 -6.9834124485537608e-01 3.1911279334126302e-01 1.7511077796388391e-01 -2.6270814349058149e+00 -1.4299055157071252e+00 6.4429218166539112e-02 -3.5131245064522072e+00 
        </Neuron>
        <Neuron NSynapses="30">
          -1.4523894483798745e+00 2.3000138075925136e+00 2.9694256249992508e+00 2.0719650533470415e+00 6.1206394358415972e+00 3.3392366861601845e-02 -2.1881433553691991e+00 -1.1141251051163361e+00 5.9364921958416406e-01 2.3541705919798672e+00 1.5246606094757803e-01 -3.8334352136429528e-01 -2.2893854544397043e+00 -2.7762992641825601e+00 -2.0438320152597651e+00 2.5752853768215753e+00 -7.9190880533674102e-01 -1.4014057062140588e+00 7.5316477832379003e-01 1.1461041306042195e+00 1.5039291200476739e+00 1.7521773558972531e+00 6.3678478625785240e-01 -4.2805364055557122e+00 3.8262919943653767e-01 -1.0242197896614531e+00 -1.0955247892850568e+00 2.0907527666108221e+00 -1.0453685871629140e-01 -1.2801986002493360e+00 
        </Neuron>
        <Neuron NSynapses="30">
          2.5446638277356910e+00 4.1828313877307427e-01 1.0583208983795960e+00 1.9911664161880047e-01 8.0300960048170478e-01 -4.5874191146396570e-01 1.5528836966497577e+00 5.7196826988537142e-01 -6.3036629192214333e-01 -9.3788506845014852e-01 -1.5758947753627779e+00 -7.8273304070747085e-01 -1.4179620356198757e+00 -7.8176397608753745e-01 -6.4332338873185990e-01 -7.1007709786346129e-01 -1.6448056690313402e+00 1.0464819651893107e+00 4.4231888133773267e-01 -1.5933124210728349e+00 -5.0306354737246955e-02 1.7997425029137450e+00 7.9905103645069309e-01 -8.3183210751582837e-01 -4.9808959788693835e-01 -6.1301889158509204e-01 2.1575814731001937e+00 -1.6999328561222637e+00 -1.4816530960420471e+00 5.0034183896957873e-01 
        </Neuron>
        <Neuron NSynapses="30">
          1.3318341670214595e+00 -5.7971759107798382e-01 -1.1995680795453014e+00 -8.8070115570440710e-01 -2.0964945877586270e+00 -1.7632619498849194e+00 -2.6783509100078344e+00 -2.3492144103112516e+00 3.4871241812360443e-01 -2.6322174418746669e+00 -2.7044343289002659e-01 -6.6813982257609039e-02 2.4952866181814698e-01 -3.0434058658617702e+00 -3.3936213734979566e+00 -8.1255551697692097e-01 4.9020829105175895e-01 1.7073885517090335e+00 6.6337655579350308e-01 -2.4084802579530460e+00 1.4133381863489995e+00 -1.5924412789666711e+00 -1.1041539277467611e+00 -2.1361902474399326e+00 1.0224581314378172e+00 -1.6687905317627594e+00 -5.8515951621483842e-01 1.4758344786726096e+00 6.6678806698178672e-01 -1.1952959175271369e+00 
        </Neuron>
        <Neuron NSynapses="30">
          -2.0254372085783166e+00 6.2815783920207036e-01 -2.2400569790228322e+00 -1.5184089737242654e+00 -2.5975234325616441e+00 -1.6739367556449971e+00 -4.9677845522840869e-01 1.3479943240063497e+00 -1.5582723832065570e+00 -5.1425817387910866e-01 1.9440729067978961e+00 7.1326178433126788e-02 -1.4925193273059669e+00 1.4904088714135040e+00 1.8749564180950500e+00 -5.3675532079620447e-01 2.4251761483482859e-01 -1.9620826252453667e+00 1.2002843630369360e+00 -1.3745457020225553e+00 -1.8812631167300550e-01 1.4934416788914490e-01 5.4387821351264065e-01 -1.8603706987573210e+00 6.2136446259955413e-01 -6.3506366253427626e-01 -3.1937773366897821e+00 1.5894534605297403e+00 -6.1984894488969466e-01 1.0382093001616868e+00 
        </Neuron>
        <Neuron NSynapses="30">
          1.9570987478159025e+00 -4.1863036893438332e+00 -1.8257507676543117e+00 7.8783336247572295e+00 -1.0803508055392059e+00 -1.2980851352971920e+00 -5.6412667478271505e-01 8.1167541578071670e-03 -2.7090767786941843e+00 -1.4300314164001824e+00 -2.8995301901520898e-01 -1.9124778694894879e+00 -1.2161597320432596e+00 -3.5251637324809693e+00 -3.4092625813827748e+00 9.1891240230258586e-01 8.3995641753543870e-01 -2.2581885288930961e+00 -3.3237758493287819e+00 -6.3087069100163518e-01 -8.8067310360066065e-01 4.7592239535996519e-02 -3.6075356782114404e-01 -1.7746448518501372e+00 2.4915095643371052e+00 -1.3146302717673458e-01 -1.9518562414113256e+00 -1.1975366157054688e-01 -2.4626469772479243e+00 -4.0984865436167812e+00 
        </Neuron>
        <Neuron NSynapses="30">
          -3.9806181194141552e+00 -3.8047163926365655e+00 4.1067225366376352e+00 1.0919399487959103e+00 -1.3158016033935047e+00 6.4881987061515634e-01 3.0809126715791617e+00 -6.1676843658054425e-01 -1.3050531617217517e-01 -8.6357939122382349e-02 -1.6322586208634904e+00 -1.1945563206872989e+00 -2.3538197963572829e+00 6.8962696870506635e-01 -2.0093086859019982e+00 -5.6675941963855014e-01 9.9228078278251253e-01 -2.6859950594575288e-01 3.6399567912140485e-01 2.7283545117530017e-01 9.9569783262382272e-01 8.5066009376724949e-01 -6.6527113247560032e-01 -2.1730456894305572e+00 -1.3226612943261904e+00 -3.6041452798765716e+00 6.3953148137983025e+00 -9.1120985527369236e-01 -6.1886047251092062e+00 -3.2396563424502700e+00 
        </Neuron>
        <Neuron NSynapses="30">
          -2.7504055596991104e+00 9.3672573922715252e-01 -1.9218803404373268e+00 1.8723338576545032e+00 1.2266287039811343e+00 -1.3870032554332479e-01 -2.5006304813023594e+00 -2.8554200040256672e-01 1.0043080375013633e+00 1.7676917357575403e+00 1.3012860989624935e+00 -1.4993391615759950e+00 -6.4621049833837374e-01 1.9203287764003774e+00 -1.9603485094086537e+00 2.1202559767452942e+00 1.3803977378140657e+00 -1.5556126302525557e+00 -6.9789264859750205e-02 -1.0555454769689068e+00 1.5246709164276420e+00 -2.0373408919305667e+00 -8.5882419356511241e-01 -2.0326402839588642e+00 2.1218194441425191e+00 1.6273606076931200e+00 -5.8070790486547903e+00 1.3830718984336627e+00 1.0561749028423624e+00 -1.4836775681480652e+00 
        </Neuron>
        <Neuron NSynapses="30">
          -1.1792817896039811e+00 1.0624401866389376e-01 5.5110093896206824e-01 8.4838339825380993e-01 -1.1164206680654898e+00 -1.6131147282786498e+00 -1.3611579071645428e+00 1.3114724224957712e+00 2.5225494328615028e+00 -1.0091344982648103e+00 -7.2918567884034780e-02 1.4511420468820435e+00 6.6308028997835855e-01 -2.3286681210905722e+00 5.7987126476581474e-01 -2.1472797427917376e+00 -3.1786262115757378e+00 -1.8294889485081727e+00 -1.3517976928049549e+00 2.5364246642426858e-02 -3.0075899461835194e+00 -1.1684296224599300e+00 -7.1934405497663052e+00 -1.4024067138091578e-01 1.3127112946993529e+00 3.1084595154157385e-01 -3.7167023900896909e+00 -1.7745939540568523e+00 -1.3875773733334222e+00 1.3062388773009792e+00 
        </Neuron>
        <Neuron NSynapses="30">
          -8.1504080221446540e-01 1.1907168294275966e-01 -1.0113184218715123e+00 -1.0557266370087093e+00 -2.4683195440144567e+00 -8.1976145866991990e-01 5.4850961200946832e-02 2.1724664869600657e-01 -2.9433579688773700e-03 1.3728874294503732e+00 -3.0637368673893473e-01 1.8703731129889321e+00 -5.8037236746875753e-01 8.7140562064144134e-01 -3.6203196824588750e+00 -1.3744596442300185e+00 -4.7274127492129434e+00 -1.5433477675676068e+00 -2.0659145008105426e-01 2.3333894719171852e-01 -1.9045235084346566e+00 -4.5463628015934038e-01 3.9222413499228170e-01 -1.2725305083369263e+00 7.9101638572690502e-01 -1.5311208526226883e+00 -1.0739662980434299e-01 -8.6898184023524117e-01 1.3867717304617821e-01 -2.1492214695823639e+00 
        </Neuron>
        <Neuron NSynapses="30">
          3.6730896964511368e+00 6.3522102842886341e-01 -9.6088656702495179e-01 -1.3259099199893538e+00 -2.5391587749849864e+00 1.9425237659953261e+00 3.5819268492652079e-01 9.0617407811745143e-01 -1.7469342037135909e+00 2.8473397250240673e-01 -2.6332368886423163e+00 -1.4564345862335788e+00 -1.1792899480542727e+00 -2.0342411440467236e+00 -4.2159423130299984e+00 -1.4988646365307208e+00 -1.4594437134016799e-01 -1.2846259061490584e+00 2.3422981184132818e+00 2.0071863839320669e+00 -1.1516796998611161e+00 1.2520257547988396e+00 -6.4103975488897055e-02 -3.4109143714298549e+00 2.8904908459987082e+00 1.7643706774149301e+00 -1.6066581390660650e+00 -2.0157158169901219e+00 4.4480988473977376e+00 2.5877669828889602e+00 
        </Neuron>
        <Neuron NSynapses="30">
          -4.4959092149071811e+00 -2.5039603114971141e+00 1.4055839760649089e+00 -3.2923359788447835e+00 2.2346373124708956e+00 -2.7586581059979398e+00 3.1623847770368116e+00 8.0457282682436582e-01 8.4433708212435366e-01 -9.5458567819906615e-01 -7.4400297206335275e-01 7.1001750786336004e-01 9.8766712017358782e-01 1.0237466482364572e+00 9.0538733638208979e-01 3.3824440929081541e+00 -1.0279171788956403e+00 2.6889022168624064e+00 -2.0347480026780743e-01 -1.7445753806094437e+00 -1.6172204075459700e+00 -3.5436448514948879e+00 4.8724313073107106e-01 -3.1825849733055585e-02 -2.3600919529208362e+00 1.4109957604127732e+00 -1.2111511280242298e+00 -1.8908645307282007e-01 3.3083321545493705e-01 1.1046284662948748e-02 
        </Neuron>
        <Neuron NSynapses="30">
          2.7316277635926793e+00 -3.0369657545755406e+00 -1.0450655579554098e+01 5.7563649749428858e-01 -9.4940555715809296e+00 6.1218493463397194e-01 3.4015646353488345e+00 4.8711054363994416e-01 -4.9110934598802114e+00 -8.9229099650641197e-01 -1.3341140830430058e+00 -1.7499656529879626e-01 -3.5108990110440925e+00 2.7926757303709233e+00 -1.7796806722478535e+00 -2.3231236506271657e+00 -2.8720808204606727e+00 3.4192628870991988e+00 2.8082151866277534e+00 6.0085438262534863e-01 -2.1587008884833296e+00 1.1873731140674990e+00 -1.6648865416819247e-01 -7.5514193509921075e+00 -6.6830390986724701e+00 2.0622785610681698e+00 -2.1793763927753020e+00 -1.7910398193346713e+00 -5.0437796609998129e+00 -2.2515302782792670e+00 
        </Neuron>
        <Neuron NSynapses="30">
          8.7196405502161012e-01 -1.5062360476797869e+00 1.6742032595453329e+00 -6.2099002333903277e+00 -5.3510429843051464e+00 -9.2441079985731134e-01 -3.2407498753926495e-01 -6.0304243583069483e-01 1.8549220293993851e-01 9.3059476755071413e-01 1.7811747042535484e+00 1.0127131755806109e+00 -8.0905014629311522e-01 4.3746912015980008e+00 2.6869221735537807e+00 5.5822775022270410e-01 3.4321153589475157e+00 -4.8540394335357184e-01 -5.9737860580921298e-01 9.7353448274514964e-01 -5.7611909294672048e-01 -1.7315154142444276e+00 2.9019044542232550e+00 3.9548251944227868e+00 -2.8183935789325965e+00 -2.0810165663656361e+00 1.4945705166691730e+00 -2.8507197837379890e+00 -1.6618619930813621e+00 3.3900323731552173e-01 
        </Neuron>
        <Neuron NSynapses="30">
          1.0288970434529006e+00 -2.4712819321362586e-01 -1.7775167774481166e+00 -8.9389907908246458e-01 -2.0420529640040050e+00 -1.5368044646976775e+00 7.0833640612841442e-01 -1.1221983066835082e+00 -4.7251304429353691e-01 -2.4989185683261992e+00 1.5591059841726620e+00 2.7513932139814097e+00 -8.3515009206204013e-02 -5.5312550695256690e-01 2.7575490166281152e-01 -4.3446885102040937e+00 3.4717555052348852e-02 5.4981562846749399e-01 -3.5783059498344233e-01 -3.1452494440065942e-01 3.9221332313572910e-01 -1.6073070658364443e+00 8.8454873640053089e-01 8.7570895154084361e-01 7.3081678635301711e-02 2.1281043905969814e+00 -1.8314197003330759e+00 -1.1745461378962967e+00 -7.0869781804400644e-01 -1.5963212103895459e+00 
        </Neuron>
        <Neuron NSynapses="30">
          -7.3051818780987423e+00 -6.1748045483687575e+00 5.9627300784947934e+00 -7.3906674405851742e+00 1.3104038761000416e+00 1.1151918388779214e-01 -4.4590310867713745e+00 -6.2633606042627599e-01 1.8220363527584382e+00 -3.1181408997558071e+00 -2.4656237498603493e+00 -1.4694327756865029e+00 -1.0123969833404198e+00 2.6029166336164784e+00 2.2643380606277965e+00 3.9311906279742588e+00 1.1139670029960149e+00 -1.5741912501335324e+00 -2.7455452115897834e+00 -1.6580601340794432e+00 -3.9868734604282370e+00 -1.7284625732266619e+00 -3.4297128793591907e+00 3.3241875640507588e+00 2.5068020328820513e+00 -8.2252479090637953e-01 -1.1907283789538019e+00 -3.7842882712403632e+00 -5.1126950440809020e+00 5.2286538421026298e+00 
        </Neuron>
        <Neuron NSynapses="30">
          -1.1860030562732804e+00 -1.0960906799855510e+00 1.2030683244009144e+00 -6.0324772721741982e-01 -2.0481427542510047e+00 1.5623574890769151e-01 1.5067794741151073e+00 -1.0909960160710714e+00 1.6377246047110159e+00 -2.2320500582497398e+00 -4.6860625074885953e-01 -2.2383473971053345e+00 -9.1255656574249244e-01 5.7934619288807865e-01 -5.8347859095873122e+00 -4.7814945584089075e-01 2.2350448694385534e+00 -3.5308400445075234e+00 -1.6726380099773270e+00 -5.2430279513649181e-01 -1.7683484148754339e-01 -4.9910037551756187e-01 1.1479191514541718e+00 -1.9405278044011847e+00 -1.2942867166362315e+00 -1.5056760194605974e+00 -2.4139381466574195e-01 1.3285573656626299e+00 -2.3544842173354184e+00 -2.7896613061406881e+00 
        </Neuron>
        <Neuron NSynapses="30">
          -2.1196476502253678e-01 -3.4918008715461464e+00 1.1900992657327898e+00 -2.8411898363093044e+00 -5.4430998900550531e-01 9.0889757504678448e-01 -9.6918529468286119e-01 2.5389405468046990e+00 -1.6187549435996011e+00 -6.7149563602644945e-05 -1.2808136022507675e+00 -2.5920615730062471e+00 1.6745891886646327e+00 -1.5334115451116296e-02 -3.3278691441673580e-01 -4.7472180550228044e-01 4.1077072031790623e-01 9.8727304280103545e-01 -1.6390295637728353e-01 8.0864360759901266e-01 7.3362512415032044e-01 -1.8749157867870072e+00 -1.4239037145971083e+00 -1.7440020767370976e+00 2.4870206755377477e-01 3.1700486535653988e-01 -1.4475003701751350e+00 5.1078742850808834e-01 5.5156575633845140e-01 1.5756064254471289e+00 
        </Neuron>
        <Neuron NSynapses="30">
          -2.7455273194506746e-01 2.5542428928494156e+00 2.9702881225974846e+00 1.0105438347429263e+00 -3.2367782856255045e-01 9.8369870184189734e-01 2.2031042450742775e+00 -1.4352890639527716e+00 -3.0382931519763225e+00 8.1436801369430789e-01 1.6674192385869950e+00 -5.4474844229238906e-01 -1.4974847048181210e+00 -1.6471065846398634e+00 -1.3251891510618303e+00 -1.4985208200756952e+00 4.5701905878848431e-01 7.7260905997881135e-01 -2.4176360530455194e+00 -2.0526527940057044e+00 7.0003346571707592e-01 -2.0162799038865620e+00 1.4536830677561221e+00 -4.4771381599907140e-01 7.9941400042593769e-01 -3.1346608673574659e-02 -1.7310360964227773e+00 1.3063099270666065e+00 1.2200304763001051e+00 4.1770397708035412e-01 
        </Neuron>
        <Neuron NSynapses="30">
          5.0833208337905589e-01 -7.6273598771429840e-01 -2.7020520984318450e+00 1.8012734690195276e-01 3.5851148368096419e-01 2.2043370523968403e-01 -7.7405858660813776e-01 -1.4101401017562156e+00 -1.0179179214672396e+00 -1.9433191910918279e+00 1.2548461357481893e+00 -9.2690242235363807e-01 -5.4689942182548679e-01 -2.1450270765999528e+00 -1.0108505788631152e+00 -2.6512869462752056e+00 -7.0467060050954611e-01 -1.6455352377094066e+00 -5.3682872885067701e-01 -6.4778443481617987e-01 -1.8509462408224622e+00 -1.7784141353411723e-01 5.6325598075295724e-01 -6.2413699807482674e-02 -1.4653683983411727e+00 -1.2508394121336925e+00 -4.3008909380613378e+00 4.4502650546185235e-01 -1.8092290095578407e+00 -2.4941882054225495e+00 
        </Neuron>
      </Layer>
      <Layer Index="2" NNeurons="31">
        <Neuron NSynapses="1">
          -2.0927715893949013e+00 
        </Neuron>
        <Neuron NSynapses="1">
          -3.2689138222761365e+00 
        </Neuron>
        <Neuron NSynapses="1">
          -5.0297010307503625e+00 
        </Neuron>
        <Neuron NSynapses="1">
          -3.6838443196255866e+00 
        </Neuron>
        <Neuron NSynapses="1">
          5.0010493394334867e+00 
        </Neuron>
        <Neuron NSynapses="1">
          1.0995022306726703e+00 
        </Neuron>
        <Neuron NSynapses="1">
          1.5763910392814617e+00 
        </Neuron>
        <Neuron NSynapses="1">
          -1.2067473884879731e+00 
        </Neuron>
        <Neuron NSynapses="1">
          -4.3532017316083582e+00 
        </Neuron>
        <Neuron NSynapses="1">
          -1.6554707428647120e+00 
        </Neuron>
        <Neuron NSynapses="1">
          4.7002200049589744e+00 
        </Neuron>
        <Neuron NSynapses="1">
          2.0953776156073385e+00 
        </Neuron>
        <Neuron NSynapses="1">
          2.7945768935707687e+00 
        </Neuron>
        <Neuron NSynapses="1">
          -6.9423287910210982e+00 
        </Neuron>
        <Neuron NSynapses="1">
          1.4984915841068429e+00 
        </Neuron>
        <Neuron NSynapses="1">
          -3.0692823176929989e+00 
        </Neuron>
        <Neuron NSynapses="1">
          -4.1487687106965190e+00 
        </Neuron>
        <Neuron NSynapses="1">
          -3.4303044079596612e+00 
        </Neuron>
        <Neuron NSynapses="1">
          2.5840654849547260e+00 
        </Neuron>
        <Neuron NSynapses="1">
          9.1596005693268423e-01 
        </Neuron>
        <Neuron NSynapses="1">
          -2.2894790001057239e+00 
        </Neuron>
        <Neuron NSynapses="1">
          -3.1512496978573323e-01 
        </Neuron>
        <Neuron NSynapses="1">
          -1.9365116624152057e+00 
        </Neuron>
        <Neuron NSynapses="1">
          5.2686424940266692e+00 
        </Neuron>
        <Neuron NSynapses="1">
          -3.2101657497404719e+00 
        </Neuron>
        <Neuron NSynapses="1">
          2.2479167946277814e+00 
        </Neuron>
        <Neuron NSynapses="1">
          -5.4793648715434680e+00 
        </Neuron>
        <Neuron NSynapses="1">
          1.8239746405109099e+00 
        </Neuron>
        <Neuron NSynapses="1">
          -3.2062258243394592e+00 
        </Neuron>
        <Neuron NSynapses="1">
          5.6202021629762799e-01 
        </Neuron>
        <Neuron NSynapses="1">
          -2.3075405497116197e+00 
        </Neuron>
      </Layer>
      <Layer Index="3" NNeurons="1">
        <Neuron NSynapses="0"/>
      </Layer>
    </Layout>
  </Weights>
</MethodSetup>
